memory_initialization_radix=16;
memory_initialization_vector=
01a,
02a,
fe9,
fb2,
013,
000,
fe2,
037,
059,
fdf,
ff4,
021,
013,
05b,
fea,
fa2,
fd4,
03f,
ff4,
01c,
fd3,
063,
ffc,
00a,
ffc,
003,
fd6,
ffb,
ff3,
fff,
fbd,
fda,
fee,
fb1,
fc2,
fd1,
fb7,
fd5,
070,
fc4,
fdd,
054,
fff,
081,
024,
02f,
fc9,
fd6,
07f,
010,
03a,
fd9,
fe5,
feb,
fa2,
018,
05a,
f87,
025,
019,
066,
00e,
fe6,
fb6,
fea,
011,
fe4,
fc9,
044,
014,
010,
01a,
00b,
fa1,
ffe,
ffc,
005,
064,
fef,
f82,
ff1,
02c,
fd3,
00b,
ff7,
02f,
01d,
fef,
028,
023,
fb5,
00a,
016,
01b,
fd2,
ff6,
ff7,
fe2,
fce,
fdf,
fc8,
ff7,
092,
00c,
fbd,
055,
ff3,
059,
00b,
039,
fcc,
fde,
086,
00c,
029,
fdd,
fd7,
ffa,
fe7,
02f,
047,
f7a,
024,
00c,
043,
ffe,
fcb,
fbf,
fcd,
00b,
fb8,
fd0,
02e,
039,
002,
ff6,
014,
f81,
016,
013,
ff2,
06b,
ffe,
f82,
ffc,
048,
fb9,
022,
fdf,
019,
fef,
feb,
03e,
002,
fad,
00b,
014,
003,
fec,
fed,
010,
fd0,
fed,
fee,
faa,
016,
0a5,
026,
fbc,
048,
fe2,
070,
02e,
03b,
fe5,
ff2,
069,
00b,
047,
fd5,
fd2,
ff5,
fde,
009,
060,
fb0,
02e,
013,
015,
010,
fa4,
fa7,
fd1,
019,
f8e,
fe3,
02d,
04c,
000,
004,
003,
f93,
017,
ff6,
fdb,
073,
00c,
faf,
015,
046,
fa0,
011,
000,
04c,
012,
fbf,
048,
027,
fc1,
00c,
00d,
010,
ff0,
ff4,
03d,
fe3,
ff4,
001,
f86,
000,
0d8,
015,
f97,
041,
001,
078,
03d,
06a,
fc4,
ff8,
06b,
fe7,
046,
fc2,
f98,
ff2,
fcc,
fff,
03f,
ff6,
021,
00b,
fe2,
014,
fc2,
f8b,
faf,
033,
f84,
000,
06d,
020,
005,
fef,
fea,
fb0,
004,
fd4,
fa6,
055,
ff8,
000,
030,
009,
f93,
002,
000,
044,
012,
f93,
03b,
02b,
fd8,
01e,
020,
005,
fe4,
00c,
02a,
fed,
fd7,
028,
f73,
01a,
0d7,
00b,
f9f,
050,
007,
060,
014,
07f,
fbf,
016,
06c,
fe3,
035,
fa2,
f82,
fd7,
ff5,
021,
059,
00f,
016,
01a,
fc4,
ff0,
fdf,
f88,
fe1,
04b,
f5d,
ff2,
068,
001,
001,
000,
ff5,
fde,
014,
fc9,
f8a,
064,
004,
00a,
019,
fdd,
f95,
00b,
00c,
037,
02f,
f99,
037,
018,
ff8,
01f,
00f,
000,
fd2,
ff8,
024,
ffb,
fae,
023,
f95,
02c,
0b6,
fd7,
f8c,
036,
014,
02e,
023,
052,
fc5,
006,
022,
fcd,
02c,
fb4,
f82,
fdf,
fe7,
01b,
063,
04c,
01f,
02b,
fd9,
fd8,
fde,
f99,
016,
05a,
f30,
ff0,
091,
005,
ff9,
00b,
fba,
fe1,
00f,
fad,
f62,
05f,
ff8,
01a,
007,
faf,
f86,
012,
020,
014,
030,
f7d,
fe0,
019,
010,
01a,
00b,
fe9,
ff1,
008,
01c,
028,
fb3,
02a,
fbc,
020,
0bf,
fe7,
f8d,
051,
02a,
038,
011,
039,
fa0,
00d,
ffc,
fbe,
01a,
f80,
fb9,
fd7,
00d,
011,
047,
045,
006,
02e,
fdf,
fda,
fcb,
f8c,
00d,
05c,
ef2,
fe3,
09d,
00c,
ff6,
027,
fc8,
fe2,
ffd,
fad,
f88,
034,
014,
021,
ff8,
fbf,
fab,
021,
02a,
023,
037,
f97,
f74,
032,
003,
03d,
019,
ff2,
006,
fdf,
03e,
01c,
faf,
02e,
fd8,
021,
0a2,
fe5,
f43,
06f,
04c,
ffd,
021,
01c,
faa,
fed,
020,
f83,
ff2,
f6b,
009,
ff4,
021,
035,
023,
044,
023,
02a,
00c,
fec,
fdd,
fa4,
010,
06e,
eec,
00c,
091,
021,
fef,
010,
fd6,
fed,
000,
faf,
f9a,
01d,
010,
004,
00a,
fb3,
fbb,
02b,
020,
02b,
05a,
f8a,
f25,
04a,
ff3,
01f,
048,
fe5,
038,
fd5,
05f,
013,
f92,
021,
006,
fdf,
097,
fe2,
f55,
05d,
022,
000,
01e,
016,
f8e,
fe1,
ff1,
f5c,
007,
f80,
fea,
fef,
003,
00d,
00d,
061,
008,
042,
018,
fe1,
feb,
fac,
ffd,
043,
f1f,
00e,
086,
021,
ff0,
feb,
fd9,
ff8,
fd9,
fc5,
fd2,
fff,
feb,
ffc,
fff,
fb9,
fc5,
004,
014,
ffa,
06b,
f99,
f02,
04b,
fd4,
00d,
04c,
fe7,
017,
fe6,
079,
012,
fb1,
fdc,
020,
fcf,
09a,
fe8,
f2f,
04e,
00f,
009,
01f,
018,
f6b,
fc6,
007,
f86,
005,
fb1,
013,
ff6,
01f,
03a,
049,
06b,
ff0,
032,
020,
fed,
01c,
fc5,
01d,
033,
f2c,
ff4,
087,
003,
fbf,
fea,
ffd,
016,
012,
fc0,
00f,
fd4,
00e,
fd2,
03e,
f9d,
fed,
024,
01f,
ffb,
051,
f9f,
ee6,
03f,
000,
032,
03d,
fd6,
012,
fc1,
06e,
004,
f8e,
000,
035,
fd9,
08d,
fff,
f13,
05f,
ffd,
01a,
02e,
ff9,
f3a,
f8b,
004,
f9d,
ff2,
fcb,
ff2,
01d,
02f,
038,
011,
067,
fdd,
056,
016,
fbe,
ff9,
fcf,
ff5,
01c,
f55,
fe8,
08d,
000,
fbe,
ff7,
ff8,
065,
ffb,
fdf,
033,
fbc,
015,
fa1,
025,
fbd,
fe5,
007,
ff7,
002,
03a,
f93,
eef,
030,
ffd,
019,
051,
fd9,
fef,
ff0,
05c,
00b,
f8a,
fdc,
04e,
fd4,
06d,
019,
f17,
056,
00b,
000,
007,
fcd,
f19,
f4c,
01a,
f69,
fef,
000,
ffe,
014,
017,
01c,
003,
019,
fd3,
04b,
ff5,
fed,
002,
fc5,
007,
040,
f5c,
fa5,
075,
ff8,
fa3,
018,
011,
080,
021,
ff9,
030,
fda,
fff,
fa8,
03d,
fb6,
fd6,
000,
ffc,
015,
014,
f8f,
f0f,
032,
fff,
01e,
02f,
fdd,
fdf,
fc8,
065,
013,
fab,
ff0,
05e,
ffd,
086,
01a,
f50,
071,
016,
011,
027,
fd2,
eec,
f2a,
012,
f77,
fde,
fdd,
ff1,
033,
ffa,
022,
fee,
fb8,
fd4,
05c,
fec,
fe9,
00e,
fd9,
000,
030,
f8e,
f5b,
078,
feb,
fba,
014,
00b,
092,
024,
ff7,
042,
fbc,
01e,
fe9,
038,
fbf,
ff4,
028,
ffa,
015,
00a,
f87,
f59,
048,
ffd,
03f,
01d,
fdb,
fcf,
004,
048,
007,
fd2,
fde,
06d,
00b,
06e,
035,
f1f,
061,
03a,
01e,
006,
fc2,
ee0,
ef9,
013,
f65,
fba,
ff4,
fc6,
028,
019,
020,
fe3,
fbe,
fe0,
06a,
fd0,
fdc,
011,
fc8,
01f,
028,
fba,
f33,
064,
fe1,
fc6,
016,
fed,
089,
02c,
fe7,
062,
fe7,
01f,
00f,
042,
fec,
ff1,
ff3,
009,
006,
016,
fa5,
f70,
02f,
017,
020,
01a,
fbb,
fa2,
012,
04d,
ff5,
fec,
fed,
05b,
017,
072,
027,
f2d,
04c,
014,
031,
02a,
f97,
ec6,
f3c,
00a,
f41,
fc2,
fe9,
fe1,
041,
03c,
00c,
fd1,
fbb,
003,
046,
ff4,
fcb,
01a,
fa3,
ff2,
039,
fb1,
f3d,
063,
fe9,
fc3,
019,
008,
09a,
03f,
ffc,
052,
007,
02a,
04f,
03b,
00f,
fca,
fef,
000,
000,
feb,
fbd,
fa3,
ff8,
011,
056,
016,
fe1,
f8a,
028,
070,
ff7,
feb,
ffe,
042,
03a,
04e,
032,
f3f,
058,
030,
038,
042,
f79,
eed,
f57,
005,
f43,
fa1,
fef,
fd3,
02d,
00d,
018,
fe5,
fc6,
008,
029,
ffe,
fc6,
02b,
fb4,
ff5,
033,
fb7,
f65,
054,
feb,
fa3,
fff,
00b,
0ac,
003,
fe5,
053,
012,
02f,
044,
ff6,
00b,
fb3,
00e,
ff2,
023,
f91,
fee,
fe6,
026,
00c,
022,
ffc,
000,
fad,
037,
05d,
ff6,
fbf,
00b,
02e,
045,
089,
01c,
f78,
06c,
033,
021,
037,
f6a,
ee5,
f70,
010,
f86,
f93,
fee,
fe8,
027,
00c,
018,
00e,
fd1,
021,
02d,
007,
fca,
03b,
fc3,
fe5,
018,
fcf,
f94,
022,
009,
fa0,
020,
01d,
0c5,
001,
fcd,
02e,
01a,
030,
035,
fe8,
ff0,
fb5,
003,
00a,
014,
f19,
012,
ff6,
ff1,
012,
035,
023,
ff3,
001,
028,
058,
ff6,
fa8,
036,
025,
05d,
054,
fdc,
f72,
08f,
03c,
029,
056,
f3c,
f29,
fba,
010,
f85,
fa6,
ff0,
ff0,
030,
010,
01c,
010,
00c,
02a,
011,
040,
fce,
02e,
fb1,
ff6,
023,
fe2,
fb2,
020,
ff5,
fb4,
029,
01c,
0e5,
00a,
fe4,
00a,
01c,
01c,
01d,
fd9,
ff8,
fbf,
035,
ff7,
023,
ed2,
032,
ff0,
008,
002,
02a,
ffb,
fed,
01d,
038,
070,
ff2,
fa4,
03b,
027,
019,
061,
fd7,
f51,
078,
031,
02a,
040,
f1a,
f60,
ff9,
fe7,
f78,
f91,
002,
012,
006,
01a,
009,
025,
024,
034,
fdf,
042,
fd5,
015,
fd5,
02d,
fe2,
ff8,
fcb,
02f,
fee,
fb4,
030,
00f,
0ae,
01b,
ff3,
00d,
01a,
028,
039,
f9a,
00e,
faa,
044,
014,
01b,
ed3,
074,
ff6,
000,
fde,
005,
00b,
001,
028,
030,
030,
f8e,
f83,
02d,
00b,
005,
025,
fd4,
f59,
092,
023,
024,
037,
f13,
fbe,
fee,
ff0,
f9f,
f9c,
042,
ff3,
034,
012,
005,
040,
064,
016,
fea,
05b,
fd2,
03b,
fbd,
01f,
fe8,
007,
fc7,
027,
fe4,
f88,
006,
ffc,
052,
ffb,
ff4,
00d,
017,
043,
040,
f3a,
018,
002,
fff,
000,
012,
f18,
067,
013,
ff1,
fde,
022,
02a,
02d,
039,
006,
ffb,
f88,
fb1,
007,
ffb,
fed,
00d,
012,
f3b,
093,
022,
045,
02b,
f38,
fe6,
009,
fe7,
fa9,
f76,
05c,
ff7,
01d,
041,
ffb,
051,
057,
02e,
ffa,
07d,
002,
051,
fc2,
015,
fdb,
04a,
fd2,
01e,
fce,
f93,
016,
00e,
014,
007,
ff5,
fcf,
01a,
05f,
01c,
ef7,
040,
034,
015,
fea,
013,
f6f,
085,
024,
fe1,
fe5,
fed,
00b,
002,
02a,
00b,
fdf,
f83,
fcd,
019,
002,
fcd,
016,
03e,
f43,
0af,
023,
022,
030,
f55,
ffe,
037,
fc9,
fa1,
f7e,
052,
fc9,
036,
05b,
014,
046,
04e,
013,
007,
07b,
fec,
064,
fbe,
021,
fe2,
040,
fc4,
022,
fc9,
fac,
015,
fda,
fe9,
03a,
00d,
fb1,
016,
04e,
005,
f54,
030,
03a,
fff,
fe3,
017,
f93,
079,
016,
fd1,
fb8,
fe7,
020,
003,
006,
ff5,
f93,
f62,
fca,
fe4,
019,
faa,
022,
06d,
f3e,
0a1,
037,
031,
022,
f8a,
00b,
04e,
fc2,
f98,
f99,
06f,
fbb,
027,
05d,
fe2,
04b,
044,
015,
006,
057,
021,
06a,
fb3,
030,
ff8,
01f,
fcb,
038,
fda,
fb9,
ff8,
ff4,
fb0,
017,
023,
f7c,
02d,
04e,
fc6,
f78,
058,
045,
008,
fb6,
02b,
fe0,
080,
029,
fd5,
f91,
feb,
02d,
011,
fd7,
ff8,
fae,
fae,
faf,
fb0,
02e,
f98,
04f,
064,
f5b,
08c,
06d,
002,
039,
fa0,
fef,
05e,
fc2,
fa8,
f90,
056,
fe2,
00a,
038,
fde,
03d,
024,
005,
02c,
048,
057,
03e,
fb3,
003,
029,
025,
fe5,
01f,
ffc,
fbf,
ff8,
ffc,
fbe,
027,
033,
f3d,
02c,
03e,
fdc,
fe2,
061,
018,
016,
fc4,
00c,
fe2,
085,
03a,
ff4,
f89,
fda,
049,
016,
fcc,
01a,
fd0,
fbc,
fbd,
fb4,
05f,
fb7,
075,
06a,
fa1,
06a,
059,
01f,
030,
fdf,
00f,
04e,
fc1,
fb5,
fb6,
03e,
fde,
000,
004,
fe5,
028,
01b,
fee,
03e,
018,
043,
02a,
fb1,
fe5,
021,
01b,
fef,
014,
ff3,
fdb,
026,
ff0,
fd9,
00d,
022,
f51,
01a,
042,
fe2,
017,
04d,
01a,
00f,
fcf,
026,
ffe,
056,
00c,
fd8,
fb4,
009,
00a,
ff5,
fca,
028,
fd8,
fba,
fdb,
fd2,
04a,
fcf,
083,
03f,
fc3,
05f,
079,
01d,
068,
fd5,
fff,
052,
009,
fbf,
fc6,
03c,
000,
ff4,
00d,
ffc,
02b,
022,
00f,
003,
00d,
04e,
024,
fcc,
005,
065,
00c,
009,
038,
ffb,
fe3,
044,
ff8,
ff5,
015,
047,
f51,
fed,
017,
fee,
003,
068,
011,
014,
fce,
033,
00d,
061,
029,
fde,
faf,
015,
01c,
ff9,
fda,
02a,
fd7,
ff3,
fcb,
fe3,
02b,
fde,
072,
009,
fed,
037,
090,
ff9,
073,
ff3,
026,
019,
ff2,
fe0,
01a,
071,
fd6,
ffd,
004,
ffb,
007,
014,
01f,
fec,
fef,
046,
028,
fe1,
026,
056,
ff2,
012,
057,
011,
005,
047,
ffd,
ff6,
fe7,
037,
f65,
fe0,
024,
ff4,
014,
04c,
ff2,
015,
fd3,
044,
ffb,
02e,
017,
fbd,
fc5,
005,
017,
004,
fee,
018,
ff9,
fdf,
fbe,
fde,
05f,
fe4,
052,
fd3,
fe1,
048,
07f,
fe1,
07b,
ffc,
058,
00c,
ff6,
fe2,
046,
06e,
fc5,
008,
028,
011,
017,
ffb,
ff0,
fde,
fe1,
03d,
022,
002,
015,
00d,
fe0,
fd7,
019,
012,
fed,
00f,
055,
fb4,
00f,
ff9,
ff6,
04b,
ff1,
f7f,
ff1,
065,
fef,
025,
fee,
03d,
fff,
fec,
021,
019,
fbe,
016,
ff4,
01c,
fda,
ffc,
fd6,
fa9,
fcd,
fdb,
fe3,
fdf,
06f,
fde,
fe9,
035,
ff0,
060,
027,
027,
fe9,
fcd,
04d,
fff,
020,
fe8,
ffc,
fea,
fc1,
007,
054,
f86,
039,
022,
038,
ffe,
fe0,
fc1,
fd1,
fe7,
fe0,
fe1,
03a,
031,
00e,
fe4,
00f,
f87,
010,
002,
ff4,
049,
002,
f77,
01d,
04c,
00b,
00f,
01a,
01d,
ffd,
fd2,
068,
011,
fb0,
030,
011,
007,
fff,
012,
fdb,
fd8,
ff3,
ffb,
fe8,
01a,
069,
027,
fc0,
033,
fc4,
05b,
02a,
033,
fe9,
fed,
02c,
00a,
ff9,
fd7,
fd7,
fd7,
002,
004,
04d,
f9f,
00b,
ff3,
002,
fed,
fcc,
fb3,
faf,
00e,
fd5,
001,
049,
024,
ff3,
ffd,
010,
f66,
01a,
01e,
fe1,
045,
00e,
f90,
02b,
052,
ffb,
019,
ffc,
024,
ff9,
fd0,
0ab,
00c,
fb9,
023,
008,
019,
ff3,
007,
fd1,
fe9,
fec,
ff9,
fc6,
fff,
09b,
00e,
fb6,
051,
fd2,
04f,
022,
046,
fed,
ff8,
02e,
fd0,
005,
fb5,
f96,
fd3,
fe5,
fee,
039,
fdd,
02e,
ff3,
fe5,
fee,
fb4,
fa6,
f8b,
023,
f9c,
015,
04a,
00b,
fd3,
fd7,
017,
f82,
00e,
00e,
fa7,
05b,
004,
fc6,
042,
02e,
fee,
ffb,
006,
035,
009,
fab,
08f,
02c,
fd3,
020,
003,
016,
003,
025,
ff2,
fe9,
004,
031,
f9f,
019,
0b9,
005,
f94,
03e,
fdc,
055,
01b,
04d,
fe1,
020,
048,
fca,
01e,
fb6,
f70,
fb6,
ff1,
fcd,
05e,
ffd,
018,
00a,
fb4,
007,
ff3,
fb6,
fd8,
039,
f95,
027,
053,
fe0,
fe0,
ff0,
012,
fa0,
031,
00c,
f95,
046,
005,
028,
03a,
fe5,
002,
ff4,
fe1,
02b,
fe6,
f93,
081,
016,
ff5,
01c,
fe0,
00e,
fe2,
031,
014,
014,
fbb,
033,
faa,
009,
09b,
fef,
f9a,
031,
005,
039,
03c,
04c,
fde,
012,
007,
fbd,
058,
f75,
f6a,
fcc,
fe9,
fdc,
04e,
03b,
038,
013,
faa,
002,
fc6,
fbc,
ff7,
05d,
f4d,
007,
061,
fdc,
009,
015,
fef,
fd7,
032,
ffc,
f71,
061,
ff0,
01f,
016,
f97,
fe4,
01d,
005,
04a,
01e,
fbd,
02b,
005,
ffa,
036,
ff0,
018,
ff6,
035,
034,
01b,
fb5,
021,
f98,
009,
0a2,
fdf,
f97,
04b,
024,
041,
02c,
04e,
fd3,
023,
ff9,
faf,
048,
f6e,
fbe,
fb4,
00c,
fea,
042,
03a,
038,
034,
fc0,
012,
fd0,
fb2,
009,
061,
f4a,
014,
077,
ff9,
fe4,
ff7,
fcb,
fda,
011,
fd1,
f62,
051,
012,
044,
ffe,
f8e,
ff0,
013,
ffb,
014,
029,
fad,
faa,
01f,
002,
058,
003,
ffa,
012,
ffe,
050,
035,
f9d,
034,
ff0,
026,
089,
fe1,
f91,
033,
03b,
ffa,
00c,
037,
fc1,
004,
fde,
f68,
02a,
f54,
ffb,
fb2,
00f,
003,
04e,
02c,
ffe,
03a,
006,
00b,
fdc,
fdd,
004,
05c,
f64,
047,
07e,
001,
ffa,
fd8,
fbd,
fd4,
fea,
fcc,
f79,
04c,
ff9,
035,
00f,
f95,
fd3,
00b,
013,
019,
023,
fbb,
f40,
00c,
ffb,
039,
011,
008,
019,
017,
022,
02a,
f99,
005,
009,
00f,
074,
fed,
f75,
055,
00d,
006,
00c,
046,
faf,
000,
fff,
f46,
005,
f77,
005,
fc4,
04d,
ff8,
04e,
052,
005,
03c,
005,
008,
fef,
fe3,
011,
04c,
f8b,
03f,
097,
00e,
ffa,
ff8,
fce,
013,
fe1,
fbc,
f8a,
023,
feb,
02f,
007,
fdc,
fee,
00c,
003,
007,
02c,
fa8,
f17,
041,
fe6,
030,
017,
fd9,
00a,
ffb,
06e,
ffa,
f94,
004,
01d,
fce,
071,
fc4,
f7e,
04d,
024,
ffd,
027,
019,
f89,
fcd,
fe2,
f5b,
fdf,
f95,
005,
fe4,
03b,
020,
032,
03d,
007,
044,
021,
017,
005,
fe6,
018,
04e,
faa,
020,
0a4,
000,
ffd,
fe9,
ff7,
00b,
fed,
fc0,
fc0,
ff6,
ff1,
fed,
000,
fc4,
ffe,
ff1,
ff7,
013,
030,
fcb,
ed5,
020,
ff4,
023,
028,
fd9,
02d,
fe1,
053,
00e,
fa2,
000,
049,
fcd,
07b,
fed,
f62,
043,
001,
fe4,
041,
ff6,
f8a,
fad,
fd0,
f85,
fe6,
fda,
ff0,
fe7,
01c,
00b,
01b,
038,
fdd,
015,
007,
00d,
022,
fd8,
016,
043,
fcb,
007,
095,
ffd,
ffe,
fe6,
fde,
03d,
00b,
fcc,
fdc,
fd9,
fee,
fe3,
013,
fba,
00a,
00c,
003,
000,
029,
fb1,
ef9,
013,
fff,
018,
03b,
fff,
013,
fc5,
06b,
ffb,
fc1,
fee,
056,
fc7,
08d,
00b,
f62,
05f,
ff3,
003,
02b,
fe2,
f64,
f8e,
fe8,
f7e,
fd3,
ffa,
ff7,
fea,
026,
fff,
ff8,
006,
fec,
035,
fd7,
ffe,
009,
fef,
fcc,
006,
fb8,
fe7,
084,
fe5,
017,
fea,
001,
03c,
00e,
fc9,
fea,
fd1,
ffc,
fbf,
01b,
fb0,
003,
fe4,
fe0,
ff2,
043,
fc9,
f2c,
01e,
00a,
01b,
054,
ff7,
00f,
fd8,
04a,
ff9,
fb8,
fe8,
060,
ffc,
08d,
007,
f61,
053,
ff9,
012,
01d,
fde,
f33,
f5d,
fe8,
f79,
fc8,
007,
ff8,
009,
01d,
010,
ff9,
fcf,
fc9,
030,
fd1,
ff7,
031,
fd6,
ff9,
01b,
fca,
fc0,
057,
fff,
01a,
ff8,
016,
077,
021,
feb,
fe2,
fde,
011,
000,
025,
fd1,
ffc,
fe9,
fde,
009,
04d,
fb7,
f68,
00b,
ffb,
009,
02a,
fe9,
ff2,
fc3,
03d,
005,
fd5,
ff8,
05c,
ffa,
073,
00f,
f5e,
041,
ff4,
009,
020,
fe5,
ede,
f13,
fd9,
f68,
fcc,
fed,
ff8,
014,
023,
00c,
fe4,
f7d,
fe7,
023,
fe4,
008,
ff6,
fde,
ff2,
036,
004,
fa1,
065,
010,
00d,
ff7,
01d,
08a,
018,
ff6,
01e,
fd4,
01b,
027,
039,
fe6,
ff9,
fd0,
fed,
00f,
046,
fa4,
fb6,
001,
024,
01a,
03a,
fd8,
ff1,
ff7,
030,
00e,
fe0,
ff9,
056,
000,
07e,
02a,
f59,
05d,
017,
ff4,
00a,
fe3,
ef7,
f22,
ff7,
f5c,
fae,
ffd,
fdd,
018,
02e,
03e,
fe5,
f8b,
ff8,
051,
fe2,
ffc,
ff7,
fc8,
fff,
00c,
009,
f68,
058,
015,
019,
00e,
02f,
071,
011,
ffd,
039,
fd9,
002,
064,
014,
ffd,
ffe,
fd6,
007,
023,
044,
fe4,
fe7,
ff6,
00c,
02a,
00f,
fe1,
fc9,
002,
02b,
003,
fdb,
ff2,
025,
00b,
08c,
03c,
f72,
056,
02d,
fed,
031,
fee,
f11,
f20,
ffe,
f5d,
f7e,
fe6,
ff1,
02a,
024,
034,
fd8,
fb3,
005,
02c,
ff3,
000,
009,
fc8,
fe3,
ffe,
025,
f93,
066,
fe7,
fee,
ff2,
01d,
080,
00a,
00a,
049,
fcd,
027,
055,
012,
00a,
fe9,
fcb,
ff7,
013,
00b,
ffd,
005,
ff6,
014,
016,
ff5,
fef,
fb6,
00f,
043,
005,
fe9,
006,
002,
032,
077,
048,
f78,
084,
016,
00f,
03e,
fcd,
f37,
f28,
021,
f66,
f94,
fef,
003,
016,
005,
048,
00f,
fe8,
013,
01f,
019,
fec,
ffd,
fc4,
fe7,
ff1,
007,
fe3,
05f,
ff2,
fc8,
003,
005,
093,
ffc,
023,
04f,
fd4,
00a,
024,
02a,
ffc,
fda,
ff7,
ff1,
fff,
fe8,
010,
034,
fe6,
008,
030,
ff5,
00e,
fc6,
004,
04e,
ff4,
fec,
021,
019,
050,
08b,
044,
f99,
079,
02c,
fda,
01d,
fb3,
f2a,
f2c,
016,
f84,
fa7,
003,
01a,
01f,
ff7,
05b,
01d,
fe4,
022,
ff8,
01d,
fc6,
032,
ff4,
ff4,
006,
ff8,
ff3,
046,
010,
f85,
00b,
ffe,
0a2,
fef,
010,
047,
007,
fd6,
ff9,
048,
fff,
fdc,
fed,
ff2,
00a,
f50,
03a,
031,
fb2,
ff3,
01f,
fd4,
fe5,
fe7,
00d,
042,
ffc,
fb9,
031,
021,
044,
07a,
006,
f83,
077,
030,
fe5,
005,
f71,
f5d,
f64,
013,
f9e,
f8d,
005,
001,
00b,
ff1,
044,
030,
01f,
017,
001,
01b,
fc7,
001,
fd5,
fe7,
005,
003,
004,
032,
00a,
fb9,
000,
015,
090,
fdf,
ff8,
021,
007,
fea,
006,
fe8,
019,
fc2,
013,
026,
ff9,
ed2,
04c,
01b,
fc7,
fe5,
022,
fdd,
ff5,
ffe,
02a,
039,
fce,
f96,
026,
010,
049,
05a,
fd0,
fa0,
081,
021,
002,
016,
f49,
fa5,
fae,
035,
f8c,
f91,
004,
013,
038,
fff,
04a,
024,
050,
038,
fc1,
036,
fcb,
ffd,
fd3,
024,
fff,
002,
ffb,
027,
ffe,
fb2,
ff9,
ffe,
05d,
fe5,
ffc,
017,
01d,
00e,
014,
fbf,
01c,
fb7,
018,
007,
01c,
ea3,
04a,
ffe,
fe1,
fd7,
000,
fdf,
ff4,
030,
030,
00b,
fc3,
f8c,
01c,
fe5,
026,
039,
fd8,
fae,
090,
023,
02d,
01d,
f20,
fe1,
fb9,
016,
f89,
f93,
000,
018,
031,
ffd,
03b,
03b,
04e,
00e,
fcf,
03a,
fe1,
00b,
fd5,
031,
fff,
017,
fe7,
024,
ffe,
fb5,
fff,
012,
023,
001,
ff7,
ffa,
028,
014,
01e,
f41,
02a,
fd1,
ff4,
014,
002,
f08,
04f,
015,
fe9,
ffb,
002,
011,
01b,
05e,
014,
fc3,
f9c,
fbb,
ff2,
fd0,
007,
02a,
000,
f90,
0ae,
007,
034,
002,
f18,
013,
fdb,
004,
f80,
f95,
03c,
00a,
044,
023,
008,
01d,
046,
026,
fcd,
04c,
ff0,
010,
fe9,
04e,
001,
02a,
fb8,
017,
00a,
fd0,
ffa,
ff7,
fe0,
022,
fe4,
ff0,
039,
029,
004,
eab,
03b,
ffa,
011,
008,
042,
f84,
05e,
00f,
017,
fdf,
fec,
01a,
013,
034,
fdf,
f86,
fab,
fd8,
fe8,
feb,
fc4,
010,
023,
f91,
089,
03d,
037,
fe4,
f23,
028,
ff7,
016,
fba,
f7e,
01c,
003,
024,
046,
ffe,
03f,
030,
03f,
ff1,
07a,
01d,
002,
fee,
04f,
ff0,
053,
fe7,
020,
02b,
fe6,
001,
ff9,
fb7,
01c,
fe6,
fb3,
054,
030,
fd6,
f05,
02c,
031,
01c,
fea,
057,
f9b,
044,
01b,
fd5,
fd4,
fff,
032,
00e,
016,
fc5,
f75,
fab,
fda,
fe6,
fff,
fdc,
01f,
08e,
fa8,
087,
027,
038,
fe9,
f5e,
02e,
010,
fda,
fa3,
fc2,
038,
fdd,
030,
046,
fef,
040,
03f,
05b,
00a,
05a,
03d,
00a,
fcf,
023,
fe1,
04f,
00b,
030,
01e,
fd9,
ff9,
ff5,
f9a,
00a,
fdf,
f6e,
04e,
03e,
fd0,
f5c,
049,
040,
00b,
fd2,
018,
fd2,
03a,
02b,
fcc,
fb2,
ff6,
037,
006,
008,
fbe,
f82,
fbc,
fbd,
002,
003,
fd6,
047,
093,
fb4,
09c,
043,
039,
fd7,
f9b,
045,
033,
fc7,
f99,
fc8,
038,
feb,
029,
01c,
fe0,
050,
023,
038,
03b,
060,
057,
015,
fba,
030,
018,
03c,
01f,
02c,
017,
fe2,
fd3,
fe1,
fa2,
fff,
01b,
f2d,
054,
03a,
fca,
fbf,
02b,
036,
fe2,
fca,
00b,
ff6,
044,
019,
fb1,
fac,
fe7,
01c,
ff3,
010,
fe5,
fa3,
fb6,
fa9,
fd8,
00d,
faf,
076,
091,
fc8,
08a,
034,
025,
004,
fc6,
044,
041,
fbe,
f85,
fd7,
04f,
fd2,
005,
000,
fbd,
012,
01c,
013,
06d,
024,
075,
008,
fc4,
022,
023,
03c,
00a,
01f,
000,
ff3,
ff0,
ff4,
fd1,
02f,
026,
f49,
025,
03f,
fd4,
01b,
047,
023,
fd8,
fc4,
01a,
00e,
02a,
00a,
fd0,
fa3,
ff5,
017,
01f,
fc3,
031,
fb9,
fd5,
fb6,
fea,
024,
fd7,
079,
07b,
ff4,
063,
04d,
023,
02d,
ff2,
03c,
043,
ffc,
fa6,
fcf,
05e,
ffe,
00e,
ff9,
ff7,
ff4,
033,
005,
04a,
017,
04f,
028,
fe5,
ffe,
030,
009,
024,
015,
007,
005,
031,
002,
ff1,
029,
034,
f3e,
032,
02e,
ff8,
03d,
05e,
00f,
000,
fec,
025,
002,
028,
005,
fd5,
fb3,
007,
007,
fed,
fd3,
04c,
fe0,
fd8,
fa4,
fce,
01c,
fc7,
08a,
049,
ffe,
048,
089,
00f,
058,
000,
03a,
033,
ff7,
fb2,
fec,
066,
fe5,
017,
001,
fdd,
013,
000,
00b,
003,
fe9,
059,
03f,
ff2,
00f,
037,
026,
020,
029,
02c,
fe5,
04c,
fe7,
fcf,
00a,
034,
f69,
fe2,
01d,
ff0,
02e,
06c,
01a,
016,
ff2,
024,
ffb,
025,
012,
fd1,
fc3,
015,
014,
ff3,
fd6,
030,
fed,
fcc,
fb8,
ffe,
00f,
ff2,
06e,
ff3,
002,
032,
080,
00d,
05e,
ff3,
03f,
03b,
fe7,
fe4,
016,
064,
fc7,
011,
023,
fe9,
02f,
ffe,
01d,
fe8,
fde,
061,
035,
006,
012,
008,
ff1,
faf,
029,
00c,
fec,
01d,
03e,
f9d,
001,
002,
027,
01d,
fec,
f7d,
029,
063,
008,
00e,
013,
023,
fde,
ffb,
050,
032,
fa6,
03a,
ff3,
010,
00c,
006,
fbf,
fb5,
fdc,
fcd,
ff1,
008,
05a,
02f,
ff2,
044,
fcd,
066,
030,
029,
fd7,
fcb,
03e,
008,
027,
fcc,
000,
fc5,
fcd,
015,
04f,
f9a,
032,
fe7,
03c,
ff4,
fea,
fc8,
fcf,
fd0,
fd6,
fe9,
03e,
02b,
ff4,
ff3,
02c,
f66,
049,
ffc,
ff7,
03a,
ffd,
fa8,
050,
05b,
01c,
01f,
ff3,
011,
fe1,
fe0,
0b4,
03f,
fb9,
031,
000,
005,
022,
017,
fb8,
fec,
fda,
00a,
002,
02a,
070,
034,
fd4,
033,
fd3,
05f,
023,
034,
fd0,
fd0,
023,
ffc,
ffb,
fb0,
fa2,
fc7,
fff,
fd1,
05c,
fd6,
01d,
fff,
fef,
fd8,
fc9,
fbe,
fcb,
ffd,
fd5,
ff3,
06c,
fee,
fd2,
fd9,
03b,
f5f,
036,
02d,
fd3,
03a,
00a,
fbe,
043,
05c,
028,
00d,
ff0,
01f,
fce,
fb4,
0b5,
01e,
fc3,
03e,
ffd,
ff7,
01d,
01b,
fc1,
ff4,
ff4,
017,
fc8,
014,
08e,
004,
fbf,
053,
fdb,
07c,
033,
028,
fcc,
ff9,
05b,
fb2,
029,
f95,
f94,
fb0,
fe6,
fd2,
056,
fdf,
02a,
012,
fe8,
fdf,
fe7,
fc0,
fd3,
038,
fa1,
ffc,
06f,
fcf,
fcc,
004,
040,
f7e,
01c,
024,
fa8,
069,
019,
013,
035,
021,
009,
010,
fdd,
02f,
fdd,
fba,
0a3,
01b,
fe9,
03c,
003,
fec,
fec,
00f,
ff7,
ffe,
fcc,
02e,
fab,
017,
089,
00f,
fd8,
045,
fd7,
04f,
03d,
01f,
fcc,
016,
02a,
fd2,
048,
f6f,
f5d,
fc5,
fe6,
fc0,
04d,
008,
036,
00b,
fdc,
001,
ffd,
fde,
ff3,
041,
f57,
003,
0a6,
fbf,
fde,
014,
018,
f96,
029,
00f,
f63,
059,
012,
00f,
037,
fdc,
017,
00a,
fea,
032,
ff2,
fb3,
062,
01a,
000,
02b,
fd9,
fff,
000,
010,
ff2,
00b,
fad,
018,
fba,
014,
085,
fef,
feb,
048,
ff8,
030,
024,
044,
fc8,
021,
014,
fbe,
04d,
f40,
f7d,
fab,
ff7,
fdd,
047,
020,
033,
017,
00c,
fd8,
fd7,
fea,
fe5,
03c,
f43,
00c,
0a7,
fc4,
ffc,
010,
017,
fd6,
00f,
ff5,
f47,
05a,
001,
041,
014,
f89,
019,
ffe,
ffc,
038,
008,
fb2,
ff1,
011,
fee,
02e,
fde,
ff9,
000,
018,
02f,
012,
f8b,
02a,
fc2,
02e,
094,
fe1,
fff,
02b,
028,
034,
031,
04f,
fd6,
005,
ff9,
fa1,
05e,
f35,
fe1,
f9b,
01f,
fe3,
070,
03c,
02c,
01d,
ff5,
00d,
ff9,
fe3,
ff4,
05e,
f38,
042,
096,
feb,
ff1,
030,
fef,
fe3,
ff5,
fd4,
f4d,
04d,
00b,
025,
01e,
f96,
007,
fec,
fde,
028,
00d,
fa6,
f7c,
027,
fe0,
03c,
fdf,
feb,
ffb,
000,
042,
025,
f99,
ffd,
000,
ffd,
08d,
fc1,
ff5,
054,
02a,
ff2,
013,
04c,
fc6,
ff5,
fe5,
f77,
030,
f48,
ffa,
fa2,
032,
005,
054,
047,
023,
041,
ff5,
004,
ffe,
fd9,
001,
057,
f92,
04a,
0a6,
ff6,
ff1,
008,
fd3,
000,
ff6,
fdf,
f68,
030,
fe1,
007,
ffd,
fbe,
011,
ff3,
fe5,
02a,
00e,
f87,
eed,
021,
ffb,
02d,
ff8,
ff6,
012,
027,
03c,
009,
fb2,
005,
022,
010,
0a2,
fc5,
fec,
051,
024,
021,
034,
029,
fa5,
fe7,
002,
f60,
ff9,
fb6,
fdc,
f98,
04b,
00b,
034,
042,
013,
03a,
004,
000,
012,
fe1,
005,
061,
fbe,
044,
0a4,
fea,
fed,
ffb,
fdc,
00f,
feb,
fb7,
f93,
02f,
fee,
ff4,
ffa,
f99,
ffe,
002,
ffb,
027,
00c,
f9f,
ecc,
045,
00b,
01d,
fec,
ff0,
005,
ffc,
062,
ffd,
fc3,
ff1,
042,
fd1,
0b7,
fcd,
ff1,
057,
00f,
010,
03d,
00e,
f99,
ff1,
fc5,
f5d,
fe5,
fd5,
fed,
fa9,
026,
013,
01b,
063,
000,
033,
001,
030,
005,
fc7,
fe4,
01a,
fea,
006,
0a5,
fdf,
ffb,
fd8,
fc2,
006,
ff3,
fcd,
fa5,
002,
00f,
ff2,
028,
f9a,
ff6,
ff5,
00a,
ff8,
02f,
f96,
edd,
011,
ff7,
00b,
000,
fea,
00f,
fe7,
06b,
fff,
fdd,
011,
054,
fea,
0a0,
fe3,
fe5,
060,
00a,
019,
012,
ffd,
f61,
fd1,
fce,
f6a,
fd8,
014,
fea,
fae,
01c,
002,
00e,
035,
002,
01f,
feb,
004,
ffa,
fc7,
fdc,
016,
ff8,
000,
0aa,
feb,
000,
feb,
ff4,
02c,
000,
fca,
fca,
fe5,
ff8,
fe9,
015,
fa9,
fe1,
feb,
fe7,
012,
035,
fba,
f1b,
021,
005,
01c,
00b,
fff,
01a,
fd6,
04a,
fe7,
fdd,
ff6,
06f,
ffd,
097,
009,
fe2,
060,
007,
00b,
037,
feb,
f18,
fc3,
fe0,
f59,
fd7,
01a,
fe3,
fd3,
01a,
ff1,
006,
fd5,
005,
02c,
fdc,
01e,
ffa,
fb2,
ffe,
003,
02c,
fcb,
082,
fed,
03f,
fe8,
00d,
057,
011,
fcd,
fc1,
fe7,
ffd,
fd9,
006,
fbd,
fde,
fd5,
004,
008,
053,
fb5,
f64,
021,
fe1,
014,
038,
fef,
008,
fc5,
04d,
fe5,
fe0,
003,
052,
01e,
09e,
ffb,
fe6,
069,
014,
00c,
022,
ff3,
edd,
f93,
fd5,
f64,
fcf,
fdd,
ff0,
fd6,
018,
01d,
007,
faa,
fe8,
028,
fec,
003,
ff3,
fd3,
ff9,
01e,
012,
fc8,
077,
009,
037,
fdc,
00c,
066,
01e,
00e,
fc5,
fb4,
ffb,
026,
ffc,
fe2,
003,
ff4,
ff5,
011,
050,
f93,
fc5,
00b,
007,
fef,
039,
ff6,
ff0,
fea,
02b,
fec,
ffa,
015,
02b,
ffa,
0a0,
02a,
ff1,
04f,
009,
ffc,
038,
002,
ecc,
f5b,
fee,
f5c,
fbe,
017,
fe3,
fe4,
00d,
00f,
fe6,
f8c,
fe8,
047,
ff5,
ff6,
005,
fdf,
000,
00d,
012,
fb1,
08c,
fff,
03c,
fe0,
009,
08d,
00d,
ffa,
fe0,
fc8,
005,
062,
02c,
fe5,
005,
fcc,
feb,
011,
043,
fb1,
016,
ff5,
019,
027,
02e,
fcc,
fe7,
ffe,
020,
ffe,
ff4,
ffa,
ff7,
fde,
0bc,
027,
fda,
07e,
007,
fe4,
03a,
013,
f01,
f58,
ffd,
f5c,
fa6,
002,
ffe,
fde,
001,
038,
ff5,
faf,
fe3,
031,
010,
ff2,
ff5,
fd1,
008,
00f,
028,
fa8,
081,
ffa,
01c,
ff2,
012,
083,
00e,
019,
035,
fae,
021,
069,
03a,
011,
ffe,
fff,
fef,
021,
033,
003,
049,
fef,
02b,
020,
002,
ff2,
fd0,
00a,
02a,
003,
000,
01e,
fcf,
ff4,
0b6,
049,
fde,
08b,
03c,
fbe,
05a,
ff7,
f1f,
f5f,
020,
f4a,
f78,
ffd,
ff0,
fea,
001,
029,
ff1,
fcf,
022,
02f,
00a,
fdb,
017,
fcd,
fdf,
010,
019,
fcf,
06c,
fe6,
ffd,
ff5,
002,
081,
01c,
01a,
085,
fc6,
ff8,
044,
045,
007,
ffb,
ffd,
ff5,
018,
011,
02a,
03b,
ff6,
020,
006,
011,
00a,
fd8,
003,
027,
00f,
ff2,
003,
fe2,
018,
090,
03e,
fbd,
09d,
022,
fd3,
024,
fe8,
f1a,
f3a,
009,
f5d,
fa3,
024,
002,
000,
00f,
037,
010,
ff4,
015,
ffc,
006,
feb,
007,
fe0,
fe3,
000,
028,
003,
078,
fe6,
fc8,
003,
010,
086,
014,
003,
05f,
fdf,
ff3,
fdd,
054,
012,
ff7,
fe4,
00f,
01b,
fe7,
04f,
042,
fe9,
fef,
030,
004,
018,
fac,
022,
036,
ff0,
fda,
018,
000,
02e,
078,
049,
fca,
094,
032,
fbc,
ffe,
fc3,
f63,
f2c,
028,
f66,
f9b,
009,
005,
ff3,
030,
046,
01a,
fe7,
03e,
fe6,
00d,
fc2,
012,
fe6,
fdd,
002,
020,
00a,
061,
fe4,
faa,
008,
014,
053,
014,
009,
05b,
fe9,
fdd,
f96,
040,
036,
fed,
000,
00d,
01f,
f79,
059,
027,
fcd,
fa3,
016,
fe5,
00f,
fc1,
010,
044,
01a,
fda,
01e,
fff,
03f,
077,
039,
fc5,
097,
00d,
fc6,
fe6,
f91,
f99,
f61,
01e,
f65,
f99,
feb,
ff6,
ffa,
00c,
049,
012,
034,
026,
fe4,
00c,
fcf,
01f,
000,
ffc,
004,
007,
022,
06a,
fee,
fbb,
ff1,
ff9,
043,
fdc,
006,
03a,
026,
fed,
fd9,
024,
00c,
fce,
023,
015,
020,
ec3,
05b,
00f,
fdc,
fb8,
009,
fc1,
fea,
fed,
029,
00a,
008,
fce,
02d,
fe7,
047,
069,
ffa,
fe3,
074,
012,
fe3,
fd9,
f42,
fba,
f4b,
03f,
f61,
f9a,
00e,
010,
00d,
002,
053,
016,
066,
040,
fc5,
038,
fdb,
017,
ffd,
00c,
01c,
025,
047,
07e,
ff9,
ff1,
fc9,
012,
004,
fe2,
ff4,
039,
048,
fd6,
ff1,
ff9,
036,
fa7,
fff,
023,
01d,
e5f,
067,
02a,
fee,
fd8,
008,
ffa,
007,
03a,
00d,
fe8,
00a,
fb8,
026,
fb3,
040,
065,
f84,
fbb,
088,
008,
020,
fe6,
f1e,
00d,
f72,
013,
f33,
fa1,
00f,
018,
007,
01f,
046,
02b,
066,
035,
fd4,
03a,
fea,
ff9,
fff,
04f,
011,
053,
032,
070,
ffd,
007,
fdc,
007,
fd9,
ff2,
ff4,
025,
06e,
fdd,
007,
fa5,
02e,
fac,
017,
01f,
016,
ebf,
068,
01d,
004,
00b,
01b,
00a,
fe4,
055,
ff3,
f7f,
ff2,
fce,
01b,
fab,
01b,
02a,
fbf,
fd9,
099,
003,
025,
fc5,
eeb,
053,
f5d,
01a,
f5f,
f88,
01e,
00b,
00c,
00c,
026,
03d,
054,
04d,
fcf,
050,
010,
ffc,
003,
041,
00a,
064,
024,
052,
017,
fd3,
fe7,
fe7,
f86,
023,
ff9,
00d,
062,
ffd,
fe9,
edb,
031,
fbf,
00e,
01b,
01c,
f6b,
036,
02e,
035,
ff2,
019,
01c,
ff6,
02f,
ffb,
f57,
ff7,
fad,
014,
fc8,
fcd,
016,
00d,
fe3,
08c,
008,
04a,
fc9,
f06,
061,
f75,
00a,
f7d,
f96,
015,
00c,
014,
015,
01f,
015,
034,
05f,
ff8,
03c,
031,
01d,
ffc,
074,
00a,
06a,
020,
038,
00b,
000,
013,
012,
f77,
025,
ff7,
fe0,
06e,
02b,
fec,
eb4,
04d,
ffd,
010,
007,
061,
fa0,
03c,
029,
020,
011,
015,
034,
ffd,
015,
fd4,
f6b,
ff0,
fbe,
fee,
fe2,
fad,
043,
052,
fe0,
0ac,
017,
02d,
fdb,
f35,
070,
fb7,
fb7,
f95,
fe0,
02a,
ff1,
01f,
02a,
ff7,
00f,
012,
06f,
011,
067,
05a,
006,
fd7,
055,
fff,
062,
01f,
041,
01e,
ffe,
00d,
015,
f9a,
01b,
023,
f7c,
046,
045,
fe0,
f18,
048,
019,
00e,
ff1,
030,
fb3,
030,
036,
ffc,
fc8,
fe4,
04e,
ff5,
fe2,
fe6,
f5c,
ff3,
fc0,
00d,
fff,
fbf,
02f,
0a2,
fc5,
09d,
054,
02c,
fe1,
f7f,
084,
ffa,
fb9,
f7f,
002,
042,
fdd,
026,
020,
fe7,
019,
ff3,
059,
04c,
05d,
054,
ffb,
fca,
03f,
00b,
05d,
020,
01a,
048,
fd5,
01c,
ff3,
f9d,
028,
01d,
f48,
029,
02d,
fe9,
fb3,
05f,
03f,
ff9,
fe0,
011,
ff3,
012,
004,
fc7,
fe8,
fe9,
037,
ff9,
fd1,
fcc,
fac,
ff8,
fa7,
fee,
017,
fd1,
04b,
09b,
fda,
094,
03b,
026,
fdf,
fba,
06e,
03f,
fc6,
f81,
ff2,
05d,
ff1,
00e,
018,
f9e,
036,
ffe,
039,
057,
058,
07f,
fff,
fe0,
028,
025,
056,
037,
017,
032,
ffe,
016,
ff1,
fa1,
026,
036,
f04,
034,
021,
fe1,
030,
05d,
035,
007,
fd1,
027,
fe7,
00c,
00c,
fae,
fbc,
008,
027,
00f,
fc1,
02d,
fd0,
fda,
f9c,
ff2,
ff4,
fde,
066,
079,
fe9,
090,
043,
01e,
00d,
fce,
05a,
055,
fdb,
f8e,
003,
053,
fe7,
ff0,
ff3,
fbd,
037,
01f,
00c,
037,
009,
05f,
030,
fdb,
026,
040,
033,
025,
022,
029,
ff9,
029,
007,
fc4,
02f,
041,
f1f,
03c,
042,
fdc,
033,
042,
04b,
fdd,
fe7,
00f,
ff6,
000,
fff,
fa7,
fb9,
005,
009,
fe2,
fc1,
043,
fd5,
fe0,
f8e,
ff6,
ff1,
fe7,
09e,
03c,
009,
066,
051,
032,
033,
ff0,
05f,
041,
003,
f9b,
002,
055,
ff4,
ff1,
ffe,
fca,
019,
004,
00c,
036,
fe3,
059,
029,
fe7,
015,
02a,
035,
031,
031,
01b,
ff3,
02c,
ff4,
fb7,
01a,
019,
f46,
009,
032,
00c,
040,
04e,
037,
011,
006,
030,
010,
fff,
fe6,
fc1,
fb4,
033,
012,
007,
fcd,
028,
fe5,
fe6,
fab,
ff6,
00a,
fe7,
093,
01b,
006,
02b,
06f,
015,
042,
fe4,
05e,
046,
00d,
fb0,
031,
070,
fbd,
004,
01e,
fde,
01c,
ffd,
00f,
006,
fb2,
070,
040,
ffb,
005,
ff1,
fd3,
fcc,
03d,
005,
fe0,
00e,
08d,
f92,
030,
020,
013,
011,
fda,
f86,
041,
089,
ffe,
003,
fff,
02f,
fde,
ffd,
072,
038,
fd5,
05a,
010,
005,
007,
ff8,
fa0,
fc2,
fe3,
ffc,
fef,
018,
04c,
02b,
001,
040,
fd2,
079,
005,
042,
fed,
fbf,
03b,
fd7,
02a,
fa6,
fe3,
fbb,
fd5,
002,
05e,
fc0,
02b,
fcb,
020,
fdd,
ff6,
fbf,
fd7,
000,
fc2,
fd4,
04f,
fea,
fe8,
012,
085,
f46,
060,
01a,
003,
037,
ff4,
fa0,
037,
059,
01c,
011,
ff3,
032,
fc6,
fc4,
0b4,
025,
fd4,
036,
009,
ffe,
01b,
010,
fc5,
fcc,
ffc,
008,
feb,
00d,
084,
05b,
010,
02d,
fdd,
073,
053,
03b,
fd7,
ff9,
01a,
ff3,
03c,
f8e,
f9f,
fd3,
fd9,
fdf,
053,
fda,
057,
fe6,
001,
ff0,
ffb,
fa4,
fce,
00d,
f92,
fe3,
063,
fe9,
fcf,
ff3,
040,
f4f,
041,
02f,
fd0,
063,
ffb,
fb5,
030,
036,
045,
00a,
fd1,
047,
fb4,
fc4,
0c3,
02c,
ff4,
032,
fff,
fe5,
00b,
018,
fd2,
ff1,
ff7,
009,
fbc,
01e,
071,
019,
fee,
02e,
fa1,
064,
036,
01d,
fce,
ffb,
042,
fdf,
02a,
f46,
f77,
fba,
fe6,
fe0,
04a,
fd4,
052,
ffc,
007,
000,
000,
fc1,
ff8,
03c,
f63,
fcc,
09f,
fcd,
fbe,
01e,
03b,
f7a,
014,
053,
f76,
050,
00f,
012,
031,
004,
021,
008,
fc9,
041,
fd0,
fb2,
066,
025,
fd8,
052,
fe4,
007,
fdc,
00c,
002,
fe2,
fdc,
015,
fb5,
fef,
086,
ffd,
028,
038,
fb8,
02b,
023,
02a,
fc8,
004,
01b,
fe8,
05c,
f39,
f59,
fb3,
008,
fce,
06e,
004,
057,
034,
018,
008,
fd7,
fcc,
fc8,
05e,
f2a,
feb,
0a6,
fb3,
fdb,
034,
017,
f97,
013,
015,
f2e,
081,
01c,
049,
035,
fdb,
02d,
ffe,
fd6,
02b,
ffa,
fbe,
01b,
018,
fe2,
052,
fdd,
01d,
fef,
006,
012,
004,
fb9,
01e,
fb1,
018,
0ab,
00a,
05d,
042,
001,
01f,
019,
035,
fc3,
016,
016,
fac,
07f,
f56,
f89,
fb4,
01f,
fed,
06a,
00c,
05b,
03d,
00c,
000,
004,
fe5,
fde,
06e,
f2f,
02a,
083,
fc6,
feb,
03e,
016,
fed,
004,
fd8,
f45,
075,
00e,
02b,
00c,
f9f,
040,
fea,
fd1,
04d,
01d,
fb7,
f9f,
000,
fdd,
059,
fc4,
004,
fef,
ff9,
051,
ff9,
fc9,
ff0,
fd1,
020,
0be,
ff1,
05d,
049,
018,
028,
00d,
032,
fb3,
fd7,
01c,
f78,
077,
f6e,
ff1,
fc1,
030,
fe2,
07c,
05a,
046,
050,
ff9,
004,
009,
fec,
ff4,
071,
f89,
042,
097,
fe0,
fdb,
025,
fe8,
ff5,
fee,
fc9,
f32,
07b,
010,
005,
005,
fae,
050,
fe5,
ff1,
038,
001,
f9b,
f13,
026,
00f,
049,
fee,
ff7,
003,
00f,
043,
fcb,
fa8,
000,
022,
01d,
0aa,
ff2,
053,
04d,
03f,
026,
03e,
014,
f97,
ff0,
015,
f58,
048,
fab,
fe3,
fad,
050,
ff0,
048,
048,
048,
04c,
00a,
fe7,
00f,
ff3,
ff1,
06a,
fe3,
039,
0a4,
fe5,
fe5,
017,
ff6,
011,
fe6,
fd8,
f81,
044,
ff4,
fdf,
ff7,
fd3,
034,
fe7,
fed,
006,
003,
fa3,
ecf,
044,
000,
047,
fdb,
ffb,
fd1,
002,
066,
feb,
fbb,
fe5,
05a,
ffa,
09a,
fd7,
05c,
052,
02a,
04e,
04d,
006,
fb0,
00b,
fde,
f52,
01d,
00c,
003,
fb3,
02b,
fe9,
021,
05a,
04f,
04e,
fed,
ff2,
ffe,
fe2,
fdd,
071,
000,
026,
0a2,
fe1,
fcf,
010,
fd3,
011,
fe4,
fe6,
f71,
041,
ff1,
fbd,
01a,
fa5,
045,
ffe,
010,
030,
00b,
f74,
ec6,
030,
009,
01b,
fdb,
fe6,
fe8,
ff0,
061,
000,
ff1,
ff9,
038,
fd0,
0b0,
fbd,
060,
037,
023,
024,
02c,
010,
f66,
010,
fe4,
f5c,
fbe,
017,
ff7,
f92,
01f,
ff2,
ffe,
056,
046,
038,
fe1,
000,
020,
fdb,
fd1,
03e,
021,
00d,
098,
fd9,
000,
ff5,
fe8,
049,
ff7,
fc4,
f98,
004,
ffa,
fc1,
003,
fa1,
01f,
fee,
fff,
011,
027,
f87,
f31,
004,
fed,
010,
fde,
003,
fdf,
fe6,
059,
fd6,
fdc,
00b,
06f,
ffd,
0c3,
fec,
041,
04b,
01e,
02e,
046,
fec,
f0f,
011,
fef,
f45,
fbf,
02c,
fea,
f88,
00f,
fe6,
00c,
ffe,
012,
050,
fe2,
fe8,
ff7,
fe1,
fd5,
003,
04d,
fd9,
073,
fdd,
021,
fe6,
00b,
06d,
01c,
fc8,
fb3,
fd2,
fe7,
ff5,
014,
fbe,
000,
fdf,
00b,
018,
044,
f95,
faa,
016,
00b,
014,
013,
fe0,
ff0,
feb,
06b,
fe7,
013,
021,
07d,
015,
096,
ff8,
035,
042,
005,
02f,
053,
001,
e99,
00c,
000,
f1a,
ff0,
011,
000,
f90,
015,
fe7,
007,
fbe,
01a,
037,
fdb,
fe2,
00c,
fee,
003,
ffb,
034,
fc5,
05d,
001,
021,
fe5,
ffd,
070,
01a,
fd3,
fc5,
fdc,
fef,
01d,
fec,
fc9,
ff4,
ffc,
004,
01f,
05c,
fb1,
ffc,
030,
ffa,
017,
002,
fee,
022,
fdb,
031,
000,
ff6,
02b,
029,
018,
098,
feb,
03f,
04b,
012,
01e,
031,
fff,
eb4,
fee,
ffa,
f38,
fd9,
fed,
fed,
fad,
000,
019,
011,
fa4,
024,
020,
002,
fda,
ffc,
fe5,
017,
fda,
03f,
fd8,
079,
00c,
02f,
fef,
00c,
07a,
ffb,
ffe,
fc2,
fa9,
ff2,
05a,
017,
fc9,
ffc,
fed,
ff3,
036,
05a,
fb6,
040,
ffe,
ff4,
012,
017,
ffa,
020,
fe5,
040,
ff3,
fe7,
010,
ff1,
fee,
0a0,
006,
02c,
064,
026,
feb,
066,
001,
f27,
fe6,
014,
f2b,
fcb,
fff,
ff8,
fae,
feb,
02e,
000,
fa3,
00a,
025,
005,
fda,
fee,
fd7,
00f,
fd0,
025,
fe4,
089,
00d,
032,
fe4,
000,
088,
ff7,
fe4,
fe7,
fbf,
00c,
063,
033,
fe5,
fff,
fd6,
ffb,
02e,
048,
ffe,
05c,
fff,
006,
019,
00c,
fe2,
009,
feb,
02f,
ff0,
fcc,
ffc,
fe3,
fd7,
0ad,
023,
02c,
09e,
01f,
003,
03a,
ff6,
f78,
fbe,
019,
f28,
fa8,
ff6,
fe6,
f99,
fe0,
03b,
00c,
fd3,
032,
00c,
014,
fdd,
004,
ff6,
029,
000,
011,
fe6,
084,
00f,
015,
000,
00d,
092,
00e,
00c,
01c,
fc9,
004,
052,
049,
ff9,
01c,
ff6,
ff4,
025,
053,
02e,
054,
019,
00d,
00e,
ffb,
ff8,
00e,
ff7,
02d,
fdc,
fe5,
fe8,
fac,
fdb,
0a6,
024,
03a,
0a9,
02c,
fc4,
04f,
fea,
f6c,
fcb,
022,
f38,
f7f,
011,
fed,
f84,
00d,
023,
fe6,
fe2,
02a,
ff6,
fee,
fd2,
00b,
fcf,
fef,
000,
036,
00c,
09a,
fed,
ff1,
fee,
00a,
085,
01c,
017,
068,
fcc,
00c,
fed,
03f,
006,
03b,
fe2,
fe4,
034,
028,
04c,
072,
ff3,
000,
000,
00b,
012,
fd0,
ff2,
023,
fee,
fe1,
023,
fdf,
ff6,
08a,
031,
034,
0a7,
00f,
fd3,
03b,
024,
f70,
f87,
048,
f3a,
fa2,
030,
fdd,
fb1,
00d,
041,
ffc,
02c,
028,
fff,
ffd,
fc3,
014,
fe1,
fcd,
00f,
02d,
010,
087,
fde,
001,
ff2,
015,
060,
00b,
005,
063,
fde,
ffa,
f76,
070,
02d,
022,
ff7,
00d,
026,
fdb,
065,
052,
016,
fdd,
01e,
006,
009,
fc3,
ff9,
02c,
012,
fdf,
010,
feb,
021,
08f,
04d,
028,
0b4,
003,
fc2,
012,
ff4,
f9f,
f82,
042,
f23,
f9f,
021,
fe4,
fa5,
00d,
059,
00c,
034,
03b,
fda,
004,
fc6,
012,
fff,
fea,
ffd,
049,
01f,
052,
fd7,
fe2,
ff6,
000,
016,
ffd,
019,
061,
fd6,
fec,
f89,
045,
045,
ff0,
00e,
ffb,
02a,
f7c,
067,
022,
fec,
fb5,
009,
ff1,
007,
fac,
fff,
010,
02e,
ff2,
030,
004,
039,
08e,
044,
016,
097,
019,
fb8,
fdb,
fa0,
fcf,
f69,
033,
f2a,
fba,
007,
ffb,
fc0,
032,
063,
010,
047,
04c,
fb9,
026,
fcb,
003,
fe8,
002,
ffe,
046,
049,
056,
fda,
fea,
fbc,
014,
ff5,
feb,
00c,
069,
027,
fef,
fb3,
054,
070,
ff0,
012,
013,
04a,
e9e,
075,
00c,
ffd,
fbd,
fe1,
ff6,
fd9,
fe3,
ff3,
fed,
02f,
001,
02e,
fdd,
058,
084,
ff0,
020,
068,
fe8,
fde,
fe6,
f61,
00b,
f63,
04b,
f4e,
fad,
011,
fe2,
fc5,
018,
068,
014,
051,
042,
fca,
033,
fee,
002,
013,
02d,
015,
042,
048,
071,
fce,
ffd,
fa2,
fe7,
fd3,
fde,
019,
070,
03c,
ff1,
fd6,
009,
070,
fab,
008,
ffe,
048,
e05,
051,
010,
ffc,
fd4,
010,
00a,
fde,
005,
000,
fbe,
000,
012,
03c,
fae,
045,
06e,
f68,
009,
083,
000,
ff7,
fd3,
efc,
051,
f70,
039,
f3a,
f86,
016,
ff1,
fda,
01e,
05b,
03f,
03c,
034,
ff6,
037,
ff5,
004,
000,
05c,
fea,
07a,
04f,
038,
ffa,
013,
fc8,
ffc,
f9c,
00b,
019,
042,
054,
024,
00e,
fb7,
067,
f8c,
009,
027,
021,
ea7,
04c,
00e,
fe3,
fec,
fff,
01f,
fe3,
06f,
009,
f89,
ff2,
010,
02c,
fb8,
034,
033,
f83,
01d,
082,
013,
043,
fcf,
ed0,
080,
f43,
02e,
f3d,
f99,
00e,
012,
fff,
021,
05a,
03a,
032,
04f,
00c,
062,
009,
009,
008,
055,
fd7,
07b,
065,
041,
ff0,
029,
fb3,
005,
f50,
ff2,
011,
036,
053,
044,
001,
f2c,
07b,
fbb,
012,
021,
031,
f5e,
016,
ffa,
043,
ff7,
024,
027,
fe9,
060,
002,
f57,
fe9,
ff3,
028,
fc6,
000,
026,
013,
01e,
071,
000,
067,
fe1,
ef7,
07a,
f44,
016,
f2b,
ff3,
002,
019,
ff8,
00e,
049,
03d,
010,
059,
00a,
057,
027,
01b,
ffb,
057,
00a,
089,
03b,
03e,
017,
016,
ff2,
001,
f40,
01e,
024,
00a,
053,
03b,
fe4,
edf,
054,
fcf,
007,
01c,
036,
f88,
010,
022,
01c,
ff1,
ff6,
04f,
fd9,
023,
ff8,
f40,
001,
fc4,
019,
fef,
fbe,
033,
085,
01a,
081,
023,
04a,
fdf,
f17,
096,
f8a,
ff5,
f59,
00c,
003,
000,
fe0,
038,
031,
00f,
fe7,
087,
013,
060,
057,
025,
ff0,
072,
006,
072,
027,
027,
02b,
02e,
019,
01f,
f20,
00a,
02d,
fc4,
05b,
01a,
006,
f32,
075,
00b,
01b,
00b,
053,
fd2,
021,
002,
ffc,
004,
fde,
034,
fc6,
fd6,
ff1,
f6b,
fe6,
f76,
020,
fff,
f92,
037,
0b8,
004,
077,
025,
030,
fe9,
f66,
07e,
fb9,
fe7,
f82,
026,
033,
fdc,
007,
01b,
fee,
00e,
fcd,
097,
038,
05b,
08e,
fea,
fef,
042,
017,
046,
02f,
032,
023,
03d,
012,
fe9,
f63,
014,
05e,
f63,
046,
031,
ffc,
fa3,
066,
02e,
01b,
015,
01f,
fe6,
02e,
fed,
fed,
fe0,
fcd,
043,
fdd,
fca,
fd3,
f90,
fec,
f6e,
024,
ff1,
fb3,
052,
0bb,
00c,
074,
043,
048,
fde,
fa6,
090,
ff9,
fbe,
f89,
035,
03f,
fc1,
01c,
00b,
f86,
025,
fca,
062,
02b,
054,
081,
fec,
fdc,
032,
017,
047,
034,
00a,
039,
02e,
02e,
012,
f7a,
01b,
05b,
f1f,
03e,
033,
ff3,
01f,
048,
036,
015,
ff0,
025,
000,
ffd,
fc9,
fc2,
fb6,
00d,
025,
fc7,
fb1,
fee,
fb7,
fdf,
f4f,
002,
fe3,
fb4,
079,
0a1,
011,
062,
042,
039,
003,
fde,
05a,
00e,
fe4,
faa,
034,
032,
001,
012,
fd2,
f96,
01c,
fef,
03f,
04e,
03f,
081,
001,
fd7,
016,
01d,
00c,
040,
ff5,
03b,
011,
01a,
ff5,
f9f,
036,
031,
eeb,
05f,
038,
ffb,
052,
046,
05d,
fe8,
fcf,
00c,
fea,
fe5,
fcd,
fb5,
fc1,
01b,
007,
fe2,
f8d,
03a,
fd5,
00d,
f70,
00c,
ffc,
fde,
086,
04c,
02b,
057,
051,
04e,
025,
fe8,
046,
04e,
009,
faf,
01f,
03f,
feb,
00e,
fc2,
f7c,
027,
00f,
00c,
039,
fea,
067,
ffc,
ffb,
feb,
03c,
012,
02d,
02c,
02b,
000,
029,
ffe,
fbc,
03b,
025,
f0d,
027,
045,
014,
054,
05b,
054,
010,
fde,
01c,
fea,
fec,
fe0,
fc5,
fe3,
013,
02a,
fdf,
faa,
066,
fd1,
008,
f89,
009,
003,
000,
097,
020,
00d,
029,
069,
02c,
060,
feb,
024,
03c,
009,
fd5,
047,
071,
fdf,
000,
fe3,
f93,
017,
fea,
01e,
01a,
f92,
07d,
00e,
fd6,
fed,
00d,
fcb,
fa2,
017,
ff2,
fc1,
01d,
081,
f9c,
02e,
017,
026,
02d,
fe7,
f78,
03f,
080,
ffe,
01c,
00c,
039,
fc0,
ff2,
0a1,
023,
feb,
058,
003,
ff4,
00d,
022,
fc0,
fe5,
ffa,
fe1,
ff3,
018,
049,
044,
01e,
035,
fda,
082,
02d,
040,
fe2,
fd0,
03d,
fd0,
029,
f9d,
fce,
fd2,
fcb,
016,
05e,
fb1,
04b,
fca,
009,
fc7,
017,
fcf,
fd4,
00f,
fba,
fca,
054,
fdf,
fe3,
00f,
068,
f78,
042,
017,
fdd,
04e,
029,
f76,
02c,
044,
048,
00f,
fe2,
01d,
fbf,
fd5,
0bc,
032,
ff7,
03c,
009,
ff3,
01a,
023,
fb2,
fcf,
019,
ffc,
fbb,
01c,
039,
027,
04c,
02f,
fcf,
061,
018,
041,
fd1,
ff7,
03f,
ff1,
023,
f59,
fa5,
fda,
003,
001,
047,
fd5,
049,
015,
009,
fda,
004,
fb7,
fd7,
021,
f95,
fce,
061,
fce,
fd7,
00d,
054,
f5d,
037,
03e,
f98,
041,
00a,
fdf,
046,
035,
02b,
ffa,
fcb,
04f,
fd1,
fcd,
09f,
045,
fe5,
05c,
002,
fe1,
fd2,
038,
fda,
fdf,
ffe,
006,
f9c,
fe6,
05f,
02c,
070,
01f,
f9b,
031,
014,
055,
fcd,
ff7,
036,
fcd,
061,
f58,
f75,
fea,
ff8,
00c,
04a,
003,
044,
017,
00b,
fed,
00b,
fc5,
fe3,
057,
f55,
fe1,
065,
fc9,
feb,
027,
02d,
f88,
018,
041,
f4f,
04a,
005,
02e,
035,
002,
045,
ff5,
fc0,
056,
fcb,
fc2,
02d,
011,
ffd,
05c,
00d,
fee,
fd3,
ff8,
fec,
fdc,
ff1,
ff7,
faa,
fee,
076,
00c,
07a,
044,
fc3,
02b,
024,
021,
f7c,
ff5,
03a,
fcb,
08e,
f73,
fa5,
fe6,
001,
fdc,
060,
013,
061,
049,
02c,
005,
016,
fd2,
fab,
051,
f26,
011,
04b,
fc3,
ffb,
03c,
01e,
fb5,
ff3,
034,
f74,
063,
008,
04f,
021,
fe7,
043,
fd4,
fdb,
044,
fdb,
fd2,
fe1,
00a,
ff9,
052,
ff1,
007,
ff2,
009,
027,
fde,
fff,
fd8,
fac,
019,
096,
014,
07a,
049,
fe2,
038,
02b,
023,
f9e,
00e,
017,
f86,
08b,
f96,
fc7,
004,
024,
fe7,
045,
03b,
04f,
057,
ff4,
ffa,
014,
fcf,
feb,
070,
f4d,
033,
071,
fd1,
ffb,
058,
012,
ff0,
00c,
000,
f54,
06b,
ff9,
011,
017,
feb,
050,
ffc,
fe1,
055,
00e,
fb9,
f63,
014,
000,
056,
fe7,
ffd,
fea,
005,
054,
ff7,
008,
fd8,
ff3,
00f,
0a1,
ff1,
0a6,
04a,
044,
040,
032,
03c,
f7f,
01f,
ff6,
f61,
06f,
fca,
001,
02b,
018,
fcf,
030,
031,
039,
02a,
ffc,
ffb,
017,
ffa,
ff3,
085,
f9c,
03e,
060,
fdf,
fe1,
01c,
ff8,
006,
013,
00d,
f80,
054,
fe6,
ffa,
012,
fcb,
068,
fea,
ff4,
02b,
fee,
fd0,
efa,
04a,
019,
046,
feb,
005,
fec,
ff9,
06e,
ffa,
ff5,
fd9,
037,
ffe,
0b2,
005,
0a8,
02b,
02f,
03a,
034,
01e,
f96,
01e,
fc8,
f2f,
02c,
fe6,
004,
027,
028,
fd9,
ffc,
050,
03d,
050,
fea,
ff4,
02b,
016,
fea,
06b,
006,
001,
041,
fde,
ff3,
011,
fef,
037,
ff0,
ff7,
f86,
028,
fe0,
fbe,
010,
fde,
061,
fc2,
006,
012,
fd5,
f8a,
ee5,
03f,
019,
01b,
001,
fe0,
fd1,
fff,
05f,
ffe,
ffa,
fde,
05c,
fd6,
0c8,
fe2,
0a6,
03b,
041,
02e,
031,
005,
f71,
016,
fe1,
f2e,
fde,
012,
ff0,
007,
023,
fde,
ff3,
055,
025,
049,
fee,
fe0,
00e,
00a,
fe6,
054,
034,
007,
040,
fdd,
ff2,
00a,
feb,
055,
00d,
ff0,
f7c,
ff8,
fe5,
f9e,
ffc,
fbd,
058,
fc8,
003,
030,
003,
f77,
f03,
01a,
fff,
017,
fdd,
ff7,
fd3,
ffe,
026,
fde,
fec,
ffb,
04f,
fee,
0b7,
fde,
09d,
036,
02b,
040,
03f,
019,
f2f,
026,
017,
f56,
fa7,
01d,
fea,
fdb,
03d,
fe1,
fd7,
019,
01e,
049,
fcb,
ff4,
000,
003,
fcc,
008,
057,
00f,
003,
fd4,
00d,
fe8,
ff2,
059,
00a,
fc1,
fc3,
fff,
feb,
fc5,
020,
fb6,
01b,
ff9,
ffa,
048,
021,
f62,
f71,
030,
005,
01b,
fbd,
ff0,
fd0,
ff4,
061,
fc8,
ff7,
005,
076,
012,
0c6,
005,
099,
02c,
ffb,
043,
04b,
004,
e82,
000,
018,
f3f,
f83,
015,
fe0,
fcc,
029,
000,
fbe,
fed,
033,
039,
ff2,
ff0,
003,
ff1,
feb,
003,
04d,
fd1,
ff5,
fe2,
019,
ff7,
ffe,
061,
01f,
fce,
fd1,
ff4,
fe5,
fe9,
fec,
fcb,
01a,
ff8,
007,
03b,
037,
f61,
fda,
02a,
ff7,
00a,
fe6,
ffa,
fd9,
fec,
05a,
fc9,
fce,
022,
047,
024,
0c1,
fdc,
0a9,
04b,
016,
045,
02c,
fde,
eb3,
020,
fef,
f6e,
fa7,
011,
fd9,
fd5,
035,
009,
fef,
f8e,
03f,
021,
fe9,
fdf,
fff,
012,
fe8,
fe8,
03f,
fde,
fe3,
ff0,
03f,
000,
ffb,
079,
008,
fcd,
fe1,
ff5,
ff6,
064,
ff0,
fec,
002,
fe9,
fe8,
036,
050,
fa0,
01e,
012,
fdf,
01f,
ffe,
ff0,
fc7,
fe2,
04a,
fd9,
fe4,
031,
ffb,
008,
0a7,
fb4,
099,
03d,
011,
02b,
04e,
ff3,
f11,
005,
017,
f7e,
fab,
feb,
fe9,
fcd,
03a,
005,
fd8,
fab,
042,
012,
ff0,
ff0,
ffd,
fdf,
004,
fcc,
049,
fec,
ff2,
002,
017,
ff8,
006,
076,
ff1,
ff0,
fe8,
fd4,
fdf,
065,
fe8,
fe0,
007,
fee,
ff5,
02b,
05b,
fde,
03e,
fe5,
fde,
020,
ff7,
ffb,
018,
fe6,
04d,
fda,
fe0,
003,
fd1,
ff1,
0ab,
ff8,
088,
051,
028,
004,
042,
003,
fa6,
ff1,
01e,
f71,
fa6,
ffb,
ff0,
fb3,
000,
02c,
fd7,
fb6,
052,
011,
ff0,
fde,
004,
fe0,
01c,
fe1,
033,
fed,
00f,
ffe,
00b,
fdf,
003,
08c,
ff7,
00a,
fc5,
fcf,
007,
06f,
02e,
00d,
ffd,
ff4,
fed,
024,
05a,
013,
04b,
01b,
fe4,
02a,
018,
ffa,
03a,
fe6,
030,
fad,
fce,
fe2,
fca,
fe7,
09c,
02a,
086,
06b,
011,
007,
032,
ff6,
fae,
fec,
03a,
f6b,
fa5,
feb,
026,
fc4,
037,
03c,
fef,
fe7,
05d,
fd7,
001,
ff0,
000,
fc2,
ff6,
feb,
036,
018,
016,
01c,
000,
fe6,
ffd,
088,
011,
006,
fe0,
fba,
026,
01e,
040,
030,
022,
ff5,
fe8,
01d,
05a,
057,
04a,
02b,
ffc,
00e,
ffc,
ffe,
011,
fed,
036,
fbe,
fdc,
fee,
fca,
fe2,
083,
038,
094,
0a2,
01c,
feb,
02a,
00b,
faa,
ffa,
03f,
f8a,
fa8,
019,
011,
fb3,
036,
033,
fee,
029,
055,
fcd,
fff,
fc1,
fff,
fdb,
000,
005,
047,
013,
ff6,
000,
010,
ff4,
ff3,
05d,
000,
019,
03e,
fdf,
003,
f93,
052,
02a,
00d,
ffd,
ff1,
01b,
036,
042,
057,
026,
00c,
016,
ffe,
ffb,
fd8,
ff4,
03b,
fef,
fe0,
ff6,
ff0,
fc8,
07b,
036,
068,
094,
00d,
feb,
03a,
01d,
f92,
ff3,
03b,
f85,
fa1,
016,
ff4,
f8d,
01a,
022,
00c,
046,
043,
fef,
005,
fe3,
ff9,
ff9,
ff5,
002,
06e,
02f,
004,
ffb,
019,
ff8,
fe8,
012,
ffc,
042,
04c,
fca,
028,
f62,
061,
05f,
00f,
005,
ff0,
025,
fe3,
05c,
039,
025,
fe8,
01d,
001,
001,
fa9,
001,
035,
01e,
fd4,
022,
ff7,
ff7,
07b,
03d,
070,
093,
ff7,
fda,
ff2,
048,
fb9,
fb6,
038,
f95,
fc9,
02d,
fe9,
f84,
035,
042,
004,
03b,
060,
fd5,
021,
fdd,
ff9,
ff9,
ff6,
ff8,
083,
04b,
fcc,
fec,
037,
fe9,
005,
fe6,
fe2,
030,
04a,
fe3,
00d,
fa4,
070,
07f,
022,
00d,
ff5,
03d,
f55,
063,
017,
fea,
feb,
fe9,
ff8,
fee,
f93,
ff9,
fef,
024,
fd1,
041,
015,
030,
072,
04f,
04c,
067,
007,
fc4,
fef,
029,
001,
fd9,
037,
fa1,
fb9,
036,
fdb,
faa,
052,
066,
fec,
026,
04f,
fdd,
05d,
fd4,
009,
002,
ff5,
00b,
059,
05d,
fcc,
ff2,
014,
fa3,
005,
fad,
fe4,
01e,
053,
02c,
ffc,
fdb,
057,
08a,
ffd,
001,
ff3,
066,
e79,
059,
002,
ff1,
ff8,
ffb,
ff6,
fd9,
fc3,
ff7,
fda,
027,
00b,
04f,
fd8,
062,
074,
fe5,
062,
055,
000,
fda,
fff,
fa9,
058,
fba,
02f,
f9e,
fae,
046,
ff1,
fbd,
050,
06a,
008,
036,
05f,
fec,
058,
fec,
00c,
ff9,
019,
00e,
075,
053,
fd8,
fee,
02a,
fac,
006,
f93,
ffe,
029,
063,
048,
019,
ff2,
038,
081,
fc9,
011,
ff3,
060,
e02,
028,
ff2,
ff3,
ff5,
004,
ff1,
fce,
01a,
00b,
fc0,
001,
030,
02e,
fd0,
057,
091,
f78,
069,
057,
ff3,
ff7,
fee,
edf,
04d,
fca,
034,
f9a,
fa9,
02d,
ffe,
fc8,
025,
073,
038,
023,
05d,
fe2,
052,
007,
007,
009,
020,
fe0,
091,
04e,
fb5,
fdf,
039,
fd3,
fed,
f57,
fe3,
022,
06b,
056,
00c,
027,
fd5,
06c,
f81,
011,
fff,
04a,
e84,
fef,
fe1,
035,
ff8,
ff3,
011,
fbc,
06d,
020,
fa4,
01c,
01b,
048,
fcc,
037,
052,
f78,
03b,
042,
007,
03b,
fff,
e87,
06e,
f84,
037,
f97,
fbc,
011,
011,
fca,
033,
05e,
042,
026,
058,
013,
048,
00f,
024,
fdc,
02b,
000,
09d,
041,
fa6,
fe0,
03b,
fc3,
fed,
f54,
004,
01e,
038,
02c,
014,
005,
f49,
056,
f91,
ff1,
030,
01e,
f4b,
fe2,
fde,
034,
fe7,
008,
05c,
fd4,
081,
ff2,
f5b,
007,
000,
01e,
fd6,
fe9,
026,
ff7,
05d,
046,
007,
058,
fdf,
e9e,
047,
f75,
00a,
fa1,
ff5,
028,
ffc,
fd9,
04d,
055,
02c,
ffe,
049,
009,
02f,
00c,
01b,
ff1,
052,
ff7,
072,
03d,
fd1,
fec,
02a,
ff2,
014,
f31,
015,
01f,
018,
033,
049,
fe4,
efd,
058,
fac,
ff8,
00d,
037,
f89,
ff1,
ff3,
047,
00d,
ffe,
077,
fbf,
021,
ff3,
f4d,
001,
fe1,
026,
00a,
fb4,
048,
05b,
04b,
047,
025,
067,
fe7,
ed3,
055,
f78,
ffb,
fa1,
038,
023,
000,
fcb,
043,
03f,
015,
fe5,
05f,
ffd,
034,
041,
016,
00a,
047,
012,
08f,
054,
fee,
006,
02f,
003,
fea,
f28,
024,
020,
fe5,
03f,
034,
ff9,
f3d,
05d,
ff4,
000,
01a,
030,
fb5,
feb,
fcd,
02b,
ffb,
ff7,
06b,
fb8,
fef,
fe3,
f52,
fe4,
fa5,
05c,
00f,
fae,
045,
0c5,
03a,
047,
02d,
057,
ff0,
f1d,
042,
fba,
fde,
fb3,
03b,
016,
ff5,
ff7,
03c,
038,
02f,
fed,
085,
fed,
054,
051,
014,
000,
049,
01a,
06b,
04d,
003,
024,
036,
004,
008,
f24,
01c,
01e,
f95,
04f,
033,
016,
fb0,
077,
00e,
007,
004,
03f,
fcc,
00a,
fd3,
001,
fd2,
fe9,
034,
fc6,
fcb,
fca,
f84,
ffd,
f53,
021,
fd9,
fc7,
062,
0e7,
041,
053,
036,
072,
ffe,
f8b,
044,
fe4,
fbe,
fd5,
034,
044,
001,
010,
025,
f9b,
055,
fdf,
09e,
00d,
06e,
045,
fdf,
fed,
03c,
03b,
02d,
046,
001,
036,
03d,
047,
00f,
f2d,
ff8,
031,
f23,
059,
026,
fdf,
017,
080,
05e,
011,
ff6,
01b,
fe2,
fec,
fc1,
fd2,
fcf,
fed,
02f,
fa7,
f8b,
fcc,
fc7,
fee,
f5f,
021,
fde,
ffd,
071,
0a7,
04c,
04d,
040,
05b,
002,
fb8,
02a,
feb,
fd1,
fe5,
02d,
05d,
ff7,
022,
fea,
f5d,
053,
fef,
076,
01f,
04c,
074,
fd7,
fd0,
02b,
029,
00f,
020,
ff1,
01d,
02f,
046,
037,
f6e,
029,
040,
ece,
07a,
01e,
fe6,
068,
077,
075,
fef,
fc5,
027,
fec,
fca,
fdb,
fbe,
fee,
013,
023,
fd4,
f75,
040,
fde,
015,
f49,
023,
fe5,
fed,
0b9,
04c,
015,
02a,
040,
073,
00f,
fb2,
055,
015,
003,
fde,
02f,
067,
fe2,
fdf,
fad,
f35,
051,
ff3,
040,
011,
fd7,
079,
fe6,
fe2,
ff7,
020,
ffa,
046,
ff3,
033,
02e,
054,
015,
f7d,
023,
02a,
ef5,
033,
014,
010,
077,
06e,
071,
01f,
fc7,
022,
ff7,
fba,
fb9,
fd1,
ff0,
022,
028,
fe8,
fb0,
02d,
fd8,
ffc,
f80,
029,
fec,
fea,
0b5,
01f,
010,
01f,
076,
075,
03a,
fc5,
04a,
048,
fed,
ff0,
051,
07c,
fc9,
ff9,
fd0,
f7b,
044,
010,
038,
007,
f95,
07c,
00e,
ff2,
ff8,
ffc,
fbe,
f7a,
000,
ff9,
004,
01d,
0a7,
fab,
036,
00f,
01a,
033,
005,
f7f,
038,
072,
ffa,
fe9,
ffb,
04a,
fb8,
000,
0bb,
057,
fd6,
04a,
02b,
fd2,
02e,
02e,
fc9,
fe9,
013,
ffe,
fd9,
01f,
021,
06c,
04f,
02c,
fd1,
057,
010,
06d,
fb5,
fce,
047,
ff9,
019,
f83,
fd1,
fbc,
fe6,
ffa,
053,
fd9,
038,
003,
027,
fd1,
023,
fc9,
ff8,
02e,
fac,
fb9,
000,
fda,
01b,
00e,
087,
f74,
055,
032,
fea,
01b,
018,
fbe,
029,
048,
001,
ff3,
fd1,
031,
fca,
fe5,
0ab,
039,
00b,
073,
001,
fe3,
00d,
004,
fc3,
fe1,
01f,
fed,
fcb,
010,
014,
031,
061,
02c,
fa7,
041,
005,
05b,
fb6,
ff1,
053,
fd2,
056,
f71,
fa3,
fd2,
ffa,
00e,
045,
00d,
034,
00a,
00c,
feb,
01a,
fdc,
fd9,
042,
f80,
fd6,
008,
fbf,
00c,
012,
049,
f71,
02c,
06a,
fa1,
054,
ff6,
01b,
01b,
022,
ffc,
fe3,
fe5,
020,
fbe,
ff4,
06f,
032,
fe3,
08d,
008,
fc0,
fd7,
023,
fe2,
fe5,
018,
fee,
fc7,
fd1,
009,
029,
099,
017,
f97,
02b,
009,
048,
f85,
00e,
038,
fe7,
080,
f9e,
fc9,
fd4,
02d,
fe6,
038,
019,
043,
00a,
fe5,
fdf,
026,
fd5,
fbb,
06b,
f58,
ffe,
014,
fd7,
ff3,
038,
024,
f9f,
00c,
04c,
fa3,
034,
013,
040,
001,
018,
00e,
ff6,
fc9,
04a,
fe9,
fee,
02f,
014,
ffc,
08c,
fed,
ff6,
fd2,
ffd,
01c,
fed,
00e,
fdd,
fd0,
fe7,
04d,
007,
089,
030,
fa4,
02c,
017,
040,
f84,
004,
029,
fca,
098,
fbd,
fba,
009,
ffd,
000,
04d,
030,
01a,
040,
00b,
fee,
047,
fbb,
fb5,
078,
f35,
028,
ffd,
fee,
002,
026,
009,
fc4,
fdd,
032,
f83,
058,
fe6,
037,
fd3,
007,
020,
ff9,
fd0,
03d,
ffb,
fdc,
fc6,
011,
fda,
042,
fd6,
00e,
fdf,
002,
043,
fef,
ff0,
fd1,
fc2,
012,
075,
003,
0a2,
044,
fe5,
048,
02f,
038,
f88,
01a,
031,
fab,
09a,
ff3,
fd9,
03d,
019,
001,
026,
056,
02e,
03b,
ff3,
fef,
05b,
fd9,
fc3,
06f,
f8d,
024,
fd4,
fc6,
00b,
033,
000,
fe9,
004,
018,
fa8,
035,
ff3,
00e,
fe3,
006,
006,
fe0,
fee,
034,
fea,
fc0,
f58,
032,
00d,
062,
ff4,
012,
fff,
ff6,
060,
015,
02f,
fbf,
010,
008,
089,
00c,
0aa,
035,
017,
023,
00d,
035,
f72,
02e,
007,
f95,
06d,
fe8,
fe4,
04c,
023,
fd8,
015,
031,
033,
036,
ffa,
ff7,
04c,
fca,
fd6,
07f,
fe6,
009,
fb9,
fc5,
013,
036,
ffa,
033,
ff3,
005,
fa1,
02a,
fdb,
fd0,
fe4,
fe7,
00b,
fad,
fdd,
027,
fbf,
fad,
ef0,
046,
ff0,
03e,
002,
ff8,
fee,
ff5,
048,
ff6,
027,
fd1,
049,
ff7,
093,
000,
0bf,
025,
029,
033,
029,
047,
f63,
025,
ff6,
f71,
039,
ff6,
fed,
033,
016,
fd6,
ff5,
061,
032,
05a,
fe5,
fd9,
052,
ff7,
fce,
045,
028,
00b,
fc2,
fd5,
007,
019,
007,
07a,
fea,
00f,
f87,
027,
fc1,
f85,
fee,
fed,
020,
fd1,
ffb,
048,
fca,
fb8,
ec4,
03f,
fe2,
054,
ff7,
ff8,
feb,
fda,
04c,
00a,
ff5,
fe7,
025,
fed,
0aa,
000,
0ab,
007,
02e,
045,
023,
03a,
f22,
008,
014,
f7a,
fd0,
fee,
fc1,
04c,
025,
ff5,
fcd,
021,
02e,
03d,
feb,
fd9,
041,
fee,
fca,
024,
06c,
ff1,
f71,
fde,
fe8,
fec,
ff6,
080,
fd8,
00e,
f98,
01b,
fd8,
f7f,
002,
fef,
03d,
fe0,
007,
01a,
fe5,
f63,
f53,
047,
003,
03c,
feb,
fff,
fd5,
fe8,
054,
fce,
002,
ff4,
033,
017,
0ab,
fd9,
0ab,
000,
029,
033,
003,
01a,
eaa,
ff5,
009,
fd8,
fac,
006,
fef,
02b,
033,
00f,
fb5,
fc4,
029,
02c,
fcb,
fda,
035,
ffb,
fe3,
041,
048,
ff2,
f6a,
ff6,
fdb,
ffb,
ffb,
0a8,
fe7,
ff2,
fd2,
027,
fe9,
fc8,
ff4,
fe1,
028,
ff9,
004,
04e,
01e,
f47,
fd6,
03d,
ffd,
020,
002,
fe4,
fa0,
ffd,
06a,
fe4,
fd7,
009,
055,
026,
0db,
ff1,
0b4,
00c,
ff7,
053,
028,
ffc,
ea0,
003,
024,
fe6,
f90,
fe3,
ff7,
019,
02e,
003,
f9a,
f8b,
02d,
02f,
fd2,
ff2,
012,
003,
fd4,
00c,
023,
fcb,
f90,
fe8,
fed,
000,
fec,
0ab,
ff7,
000,
fc9,
014,
fcf,
039,
fd5,
000,
ff7,
fef,
009,
042,
030,
f4d,
012,
029,
009,
040,
ffc,
fe7,
fb1,
ff5,
06b,
004,
fbe,
02b,
01f,
001,
0d3,
fdd,
093,
047,
00f,
044,
03b,
022,
ef5,
ff8,
005,
fc9,
f8a,
ff3,
003,
02d,
046,
00b,
fb7,
f87,
034,
008,
fd7,
fd3,
033,
ff4,
fe1,
fdd,
028,
fe0,
f7a,
001,
fe2,
005,
00d,
07e,
010,
fd7,
fe6,
035,
fdb,
086,
fb2,
006,
fe4,
005,
fff,
03f,
051,
fad,
023,
ff7,
fc4,
032,
018,
ffe,
fe3,
016,
05d,
ff0,
fc1,
013,
fcc,
00e,
0df,
fbb,
099,
034,
024,
03d,
030,
027,
f56,
ff9,
024,
fcf,
f86,
ff2,
fe8,
011,
044,
fe4,
fb0,
fa5,
059,
013,
ff7,
fdc,
00a,
fe2,
007,
fe4,
031,
ff7,
f5a,
004,
ffb,
ff5,
031,
087,
00b,
ff0,
fd6,
00b,
fef,
080,
fc7,
ffc,
ff9,
ffa,
010,
03d,
07b,
fff,
051,
fef,
ff0,
051,
ff4,
fff,
ff7,
007,
06d,
fd2,
fd0,
00e,
f7d,
017,
0c9,
000,
092,
02c,
00b,
015,
025,
009,
fd9,
fdf,
04a,
fcf,
f75,
fde,
014,
023,
031,
012,
fbe,
ffa,
07c,
ff0,
009,
ff1,
fe6,
ffa,
fea,
fe9,
02d,
017,
f77,
013,
008,
000,
00c,
072,
ffe,
006,
fc7,
fd2,
fd4,
049,
012,
031,
fe6,
ff2,
002,
01f,
086,
05e,
029,
017,
ff8,
035,
010,
fdc,
028,
ff1,
051,
fcb,
fb9,
fe5,
f90,
000,
0bb,
017,
098,
038,
00d,
027,
033,
02f,
fbb,
ffb,
020,
fb2,
f6f,
ffe,
015,
ffe,
04a,
022,
fcc,
024,
079,
fd4,
019,
00c,
002,
fd5,
ff2,
ff1,
045,
035,
f76,
ff7,
fe9,
011,
00c,
046,
006,
00e,
fd5,
fca,
003,
fc9,
048,
05a,
017,
009,
ff6,
00f,
0ab,
065,
051,
01e,
007,
031,
00a,
012,
00a,
fe3,
05d,
fed,
fb6,
fc6,
fe1,
fdc,
087,
02b,
099,
057,
ffa,
015,
040,
014,
fa5,
fe8,
03a,
ffc,
f9d,
020,
018,
fe7,
040,
011,
fe8,
055,
06a,
fd6,
019,
ffa,
01f,
fe2,
010,
ff9,
06f,
05e,
f83,
016,
019,
004,
ffe,
ffc,
fe5,
015,
030,
fcd,
014,
f96,
04e,
049,
01c,
ffc,
005,
00f,
06c,
061,
038,
017,
ff5,
042,
011,
ff4,
fdd,
ff9,
02f,
021,
fdf,
001,
ffd,
fb7,
076,
049,
095,
065,
011,
00d,
01d,
045,
fc2,
004,
033,
ff9,
fed,
042,
025,
fe7,
042,
03d,
fc6,
05d,
06d,
fc2,
012,
ff1,
ff9,
fed,
ffd,
013,
07a,
063,
f50,
018,
02c,
ff2,
016,
feb,
009,
024,
063,
fdc,
026,
f62,
084,
066,
ffa,
024,
ffe,
026,
016,
044,
027,
02f,
fd7,
041,
01e,
ff1,
f6a,
011,
00a,
02b,
fd9,
018,
018,
fc7,
06a,
03b,
074,
05f,
002,
fdf,
023,
065,
fca,
fd1,
02e,
027,
fab,
04f,
01f,
fe4,
046,
054,
fb6,
015,
05d,
fdc,
006,
ffa,
ff5,
ff1,
fd4,
009,
072,
061,
f52,
00f,
017,
005,
007,
fa2,
fd9,
02e,
06b,
fe4,
046,
fd2,
091,
099,
ff2,
02d,
fd4,
03e,
f74,
065,
01a,
006,
ff2,
026,
012,
fde,
f72,
ffc,
fd5,
014,
feb,
036,
ff3,
014,
06e,
038,
068,
041,
ff9,
fe5,
009,
04c,
021,
fdb,
038,
021,
fb5,
060,
002,
fc5,
036,
04b,
fc3,
00c,
053,
000,
049,
fcd,
005,
fed,
fd8,
00f,
062,
05b,
f57,
ff6,
03b,
fd1,
005,
f7e,
ff0,
015,
048,
007,
026,
fd5,
078,
09c,
ff2,
007,
ff8,
05c,
e5d,
029,
ffa,
ffc,
ffa,
014,
00c,
fe0,
f9d,
008,
fbf,
021,
004,
033,
fc4,
046,
057,
003,
063,
024,
ff4,
fef,
02c,
015,
03a,
fe7,
02c,
002,
f95,
066,
ffc,
fd9,
042,
045,
ff1,
00b,
05a,
00f,
05b,
feb,
00b,
fea,
01b,
007,
06c,
05e,
f69,
fe3,
03b,
fdf,
01a,
f6a,
ff2,
fd5,
06b,
02d,
014,
00c,
035,
099,
fc9,
00f,
fe7,
058,
daf,
009,
008,
011,
ff3,
010,
013,
fd5,
00c,
01f,
fb6,
021,
018,
05c,
fb8,
083,
062,
f60,
066,
fe6,
008,
ffb,
014,
f72,
050,
004,
02f,
019,
fb1,
02d,
ff9,
fd0,
03c,
038,
022,
012,
05a,
fe1,
05a,
ff2,
006,
fe3,
021,
fd9,
060,
05f,
f5b,
fdb,
03b,
fd4,
000,
f5c,
002,
ff9,
071,
03a,
004,
00e,
fbc,
065,
fa4,
ffb,
fe7,
058,
e60,
000,
ffd,
038,
fe4,
00e,
02e,
fad,
076,
001,
fa1,
021,
02f,
043,
fda,
03a,
06c,
f50,
078,
000,
fe9,
044,
013,
e85,
041,
fee,
030,
000,
fdd,
01a,
002,
fc2,
049,
046,
045,
ff0,
069,
003,
03c,
ff4,
02d,
00e,
03b,
013,
04d,
069,
f48,
fde,
035,
fe4,
000,
f4e,
ffb,
fef,
032,
030,
01a,
ff2,
f4f,
056,
f58,
00a,
ff7,
036,
f54,
fec,
022,
058,
ff7,
fea,
066,
fe4,
087,
007,
f54,
002,
038,
023,
008,
fcd,
048,
fba,
057,
011,
028,
061,
000,
e41,
065,
fb8,
fe6,
ffd,
01a,
016,
003,
000,
071,
02d,
040,
fd9,
062,
014,
044,
005,
02b,
010,
05c,
00b,
03d,
06c,
f37,
fdc,
00b,
007,
ff9,
f5e,
012,
012,
02d,
016,
022,
ff1,
ec5,
069,
f99,
003,
007,
03d,
fa2,
fd7,
fef,
037,
001,
004,
077,
fd1,
031,
ff3,
f45,
fe3,
fee,
031,
00f,
fa6,
02d,
061,
05a,
ff9,
01c,
066,
001,
e6d,
05b,
fc0,
fec,
00e,
01f,
032,
fed,
fd5,
063,
038,
03b,
fde,
083,
ff9,
02e,
027,
02d,
015,
04f,
016,
032,
081,
f58,
fe3,
038,
020,
028,
f46,
000,
01e,
fd5,
022,
03b,
fda,
eff,
079,
ff9,
ff9,
014,
02b,
fb5,
002,
001,
023,
ff8,
fe6,
096,
fc4,
ff3,
fe4,
f5d,
fe1,
fb5,
049,
01d,
fa0,
05c,
0bd,
04a,
00b,
021,
062,
ff4,
ec2,
041,
ff3,
fe5,
ffe,
03b,
02e,
fb4,
ff1,
04a,
ff4,
045,
fc6,
09a,
fff,
057,
040,
016,
00e,
039,
018,
02e,
05d,
fb2,
ff9,
022,
01e,
00a,
f33,
00e,
02d,
fc3,
03b,
014,
fd9,
f78,
061,
02c,
01a,
003,
02c,
fd7,
011,
014,
02e,
fd3,
fc3,
055,
fc3,
fbd,
fb2,
f98,
fd7,
f5b,
034,
ff3,
fbd,
066,
0dd,
03c,
019,
02d,
06a,
011,
f33,
02a,
00d,
fe4,
001,
036,
060,
fbb,
00a,
046,
f8c,
04f,
fe7,
080,
ff7,
068,
050,
fe7,
ff1,
003,
028,
000,
048,
fc8,
004,
01c,
047,
021,
f47,
006,
01e,
f4e,
04f,
001,
fe8,
012,
054,
04a,
036,
fef,
01d,
fdd,
feb,
fe0,
002,
fd5,
001,
035,
fda,
f9d,
fc7,
faf,
fce,
f6d,
02f,
fb5,
00f,
094,
0b0,
038,
023,
03e,
088,
ffa,
f89,
029,
fe0,
014,
011,
02a,
054,
fe7,
000,
ff4,
f33,
077,
fd8,
05d,
014,
00e,
065,
ff5,
fd5,
003,
00b,
fd4,
02a,
fca,
020,
ff8,
053,
04a,
f68,
00f,
042,
efd,
057,
01e,
feb,
08d,
045,
06d,
017,
ffa,
029,
fd5,
fc0,
ff7,
fd8,
fbe,
00c,
030,
fcf,
f84,
012,
fda,
013,
f67,
02b,
fbc,
00f,
0a9,
04c,
021,
01b,
054,
08f,
030,
fa4,
028,
ff1,
005,
001,
01d,
076,
fee,
ff7,
fca,
f3e,
07a,
fe3,
056,
ff8,
fbb,
06d,
fdb,
fea,
00a,
01e,
fde,
002,
fe8,
00a,
fe8,
067,
039,
f8f,
00a,
01c,
ec5,
049,
007,
fed,
088,
05a,
07f,
017,
fef,
03b,
fff,
fd0,
fd1,
fe1,
fd1,
03a,
026,
fe6,
f9e,
036,
fe0,
009,
f6c,
026,
fe0,
000,
0d4,
01d,
03c,
01f,
061,
08e,
038,
fbc,
040,
022,
017,
00a,
03f,
070,
fcd,
fef,
fca,
f65,
043,
010,
04b,
ff5,
f7e,
086,
022,
fde,
00e,
03f,
faa,
f9c,
fda,
fe7,
ff3,
026,
09e,
f93,
05c,
031,
00d,
031,
019,
fd4,
03d,
051,
fa2,
fd6,
fec,
035,
fa9,
00a,
085,
03c,
ffd,
06b,
02b,
fd8,
01c,
035,
fcc,
feb,
026,
ff3,
ffe,
00e,
00a,
06d,
04d,
02e,
fb1,
041,
ffe,
049,
fc6,
fcb,
058,
fe6,
00d,
f9f,
fed,
fbd,
ff8,
004,
037,
001,
072,
017,
006,
fd5,
029,
002,
006,
034,
f9c,
fca,
feb,
ffc,
013,
012,
074,
f7d,
029,
03e,
fef,
030,
ffd,
fea,
036,
040,
fbb,
fe5,
fe5,
022,
fe0,
ffc,
08d,
032,
003,
07e,
02e,
fc7,
001,
035,
fc2,
008,
01c,
ff0,
fdc,
fe8,
ff9,
037,
070,
02d,
f9e,
038,
fe4,
05f,
f99,
fe7,
025,
feb,
069,
fe1,
fb1,
fcb,
015,
ff6,
044,
02d,
049,
02b,
00b,
000,
022,
ff6,
fe5,
035,
f69,
ff0,
fcc,
011,
01d,
01f,
03c,
f69,
008,
077,
fad,
057,
ff4,
033,
ff5,
02d,
ff2,
ff4,
fc8,
01f,
ff8,
fce,
050,
018,
ff5,
089,
005,
fe7,
fc3,
02b,
fe2,
ff3,
ff6,
fe0,
fbc,
fd1,
005,
00f,
077,
032,
fa7,
004,
019,
050,
f70,
fed,
033,
fea,
077,
00d,
fbd,
fe8,
00c,
ffd,
037,
058,
022,
019,
014,
ff5,
034,
ff4,
fb6,
046,
f3a,
004,
fc3,
fef,
002,
03e,
ffa,
f8c,
fe5,
052,
fc8,
03c,
fe9,
057,
fde,
001,
fd3,
fdf,
fc6,
006,
fdb,
fc2,
02f,
01b,
fe3,
096,
010,
fe3,
fdf,
028,
ffd,
00a,
000,
fba,
fc2,
fed,
005,
fdc,
088,
044,
fb2,
00c,
ff8,
051,
f71,
fe7,
041,
fe5,
086,
ffe,
fbc,
ff1,
01f,
ff8,
025,
042,
00f,
033,
fed,
000,
051,
fcd,
fbc,
060,
f72,
01f,
f89,
007,
011,
039,
022,
fb0,
fed,
059,
fd3,
056,
ff2,
02d,
fc0,
01e,
fc4,
ff4,
fb2,
03e,
fe2,
fea,
fae,
02a,
ffb,
059,
020,
010,
017,
007,
029,
ffc,
00a,
fd3,
fe2,
00a,
025,
fec,
093,
048,
fe2,
030,
025,
055,
f51,
002,
03b,
ff7,
0a5,
00c,
fc4,
023,
039,
fff,
027,
052,
010,
03f,
ffe,
fe3,
062,
fcf,
fe3,
041,
fb2,
000,
f82,
001,
01c,
056,
00d,
ff7,
fd3,
01b,
fdd,
04c,
fcb,
ffe,
fe1,
020,
f98,
fe2,
fb3,
018,
fd8,
fdd,
f4a,
038,
02c,
07a,
007,
ff5,
010,
00a,
052,
004,
ffc,
fbb,
019,
ff7,
02f,
ffc,
088,
02e,
ff1,
03b,
028,
028,
f45,
002,
02b,
007,
075,
fcf,
fb0,
041,
040,
ff6,
fee,
053,
012,
03f,
fee,
000,
04e,
fc0,
fd2,
06a,
ff9,
00a,
fa6,
fff,
fff,
04a,
000,
043,
fd9,
00b,
fd2,
059,
fe5,
faa,
fef,
002,
f9a,
fcb,
fec,
019,
fc7,
fd4,
ead,
03b,
019,
07f,
021,
fdd,
ffa,
025,
05b,
025,
01e,
fc4,
fff,
fe7,
040,
010,
07e,
01b,
028,
044,
000,
03f,
eeb,
02a,
00f,
00c,
01a,
fdd,
fcb,
064,
042,
fed,
004,
038,
024,
046,
ff5,
fd1,
037,
feb,
ff7,
037,
03a,
fec,
f9c,
fec,
fea,
026,
ff6,
061,
fd9,
ff8,
fa4,
02a,
fb1,
f58,
fe8,
ffd,
fb2,
fc1,
fd2,
03a,
fcf,
fe4,
ecd,
04b,
fee,
06f,
009,
ffc,
fe8,
022,
055,
011,
008,
fe7,
02a,
ff2,
05b,
ffd,
077,
ffa,
03b,
01e,
fe6,
03d,
e94,
006,
009,
057,
ffe,
fe7,
fd2,
074,
02a,
010,
014,
fca,
031,
021,
ff1,
fd1,
04e,
fe8,
fed,
033,
05f,
ffa,
f9f,
feb,
fbd,
003,
ffd,
0a6,
fea,
ffa,
f88,
002,
fdc,
f7a,
009,
ff8,
fc2,
fcd,
fd6,
03f,
fd7,
f95,
fc7,
023,
fcc,
06d,
ffd,
00a,
004,
027,
077,
00d,
fe9,
fe8,
058,
fe9,
06b,
fda,
064,
008,
020,
048,
011,
018,
e69,
005,
004,
051,
fc5,
00a,
fc6,
084,
fff,
029,
fdd,
fac,
035,
024,
fc9,
fcb,
02d,
ffb,
fcd,
03d,
042,
fd6,
f99,
fff,
fac,
ff8,
019,
0a4,
fcc,
ff5,
fa2,
ff9,
fc6,
022,
fe0,
002,
fb2,
ff4,
fe1,
05a,
001,
f70,
015,
04e,
fdf,
06b,
ffd,
fff,
fe0,
013,
07c,
ff7,
fec,
006,
03e,
ff0,
0a3,
fe0,
064,
fd7,
017,
060,
014,
013,
ee7,
014,
005,
041,
f93,
ff0,
fd2,
08f,
004,
029,
fdd,
f80,
01f,
008,
fc9,
fe2,
025,
ffb,
ff6,
037,
026,
fdd,
f97,
fe8,
fa8,
01e,
02c,
0a7,
fdd,
fee,
fbb,
000,
fd2,
04a,
fc8,
026,
fba,
ff1,
000,
06f,
028,
f90,
043,
018,
fdc,
055,
ffa,
ff5,
fd6,
020,
07a,
011,
fdf,
ffa,
002,
ffc,
0c2,
fe6,
066,
007,
013,
01c,
ffe,
013,
f3f,
ff0,
01e,
027,
f5c,
ff4,
fd8,
097,
000,
026,
008,
faf,
04f,
ffc,
fe7,
fc7,
00c,
000,
01f,
fe4,
043,
ff7,
faa,
00a,
fcb,
026,
01e,
081,
ff9,
fe7,
fca,
00e,
fb9,
08f,
fb7,
02a,
fd5,
ffa,
fff,
04a,
04e,
fda,
041,
fff,
fc0,
071,
004,
ff4,
fc8,
024,
061,
000,
fd0,
fe8,
f95,
018,
0eb,
fd7,
086,
004,
017,
02b,
000,
033,
fb8,
fdf,
012,
00e,
f71,
fdb,
010,
0a7,
004,
028,
ff8,
fea,
054,
ffb,
006,
ff7,
024,
00a,
030,
ff1,
032,
00f,
f76,
006,
fb3,
003,
021,
072,
feb,
ff9,
fb0,
006,
fce,
061,
fb9,
022,
fbc,
000,
020,
057,
072,
030,
02e,
ff1,
fe4,
05f,
ff1,
fef,
004,
ffc,
067,
fdf,
faf,
fd2,
f72,
038,
0ed,
005,
083,
00a,
012,
00c,
010,
03e,
fdc,
00c,
01c,
018,
f83,
ff3,
037,
07c,
004,
003,
ff3,
033,
057,
fee,
034,
fe6,
000,
fe4,
ffa,
ffd,
033,
014,
f63,
000,
fd6,
ffe,
026,
05e,
ff9,
ff3,
fb9,
fde,
fcc,
02a,
ff1,
050,
fc1,
ff2,
01e,
030,
0ab,
049,
03e,
ff8,
00c,
07d,
01b,
fd5,
028,
fd9,
063,
fea,
fc7,
fe2,
f77,
019,
0c8,
038,
09d,
00c,
017,
00a,
ffd,
00a,
fd0,
000,
ffc,
01a,
f9f,
00f,
041,
088,
027,
008,
fe4,
066,
077,
ff6,
010,
002,
000,
ff9,
011,
00b,
027,
05f,
f64,
000,
fd0,
006,
024,
028,
010,
ff4,
ff5,
fc3,
fc0,
f8d,
03f,
059,
002,
000,
014,
02e,
096,
055,
04e,
01f,
01b,
065,
022,
003,
018,
fe8,
03a,
fe4,
fdd,
fbb,
fcc,
fdb,
0ca,
024,
097,
041,
00b,
015,
006,
002,
fed,
ffa,
fe4,
028,
fc6,
02e,
02c,
078,
014,
00c,
fa3,
055,
08c,
fcc,
ffb,
fec,
000,
fe2,
01b,
026,
02a,
06a,
f57,
fff,
001,
03c,
01a,
001,
018,
ff9,
007,
fe5,
fe1,
f67,
046,
086,
015,
ff7,
006,
033,
06e,
063,
045,
00d,
ff8,
06b,
013,
fe4,
fbb,
ffe,
006,
00a,
fe9,
fef,
036,
f6b,
0a8,
045,
072,
056,
01b,
00b,
009,
000,
fe8,
ff3,
007,
053,
fbe,
03a,
00f,
05a,
000,
023,
fc0,
044,
08b,
fe4,
012,
fd4,
005,
ff9,
01e,
01f,
007,
059,
f5f,
019,
ff1,
03f,
027,
fc3,
ff7,
fef,
071,
fdd,
00c,
f98,
049,
07d,
010,
003,
fe5,
01e,
01e,
04c,
04b,
00f,
fc9,
068,
02b,
fd8,
f5c,
007,
fd0,
018,
ff0,
012,
01b,
fa3,
08a,
05d,
093,
01a,
01d,
fdf,
01e,
04b,
002,
002,
fff,
05c,
fb3,
03f,
016,
041,
018,
035,
fb7,
000,
05a,
ff1,
014,
fd4,
ffd,
fef,
fe0,
029,
ff7,
061,
f6c,
002,
010,
01e,
032,
fd2,
ff6,
008,
079,
01a,
024,
fed,
075,
099,
009,
028,
fec,
02d,
f7a,
054,
02a,
00a,
fc6,
035,
031,
ff2,
f6b,
010,
fd3,
015,
fe4,
017,
009,
00f,
08b,
062,
069,
002,
02c,
fde,
032,
05a,
029,
001,
fea,
073,
fc9,
063,
01d,
054,
013,
020,
fd7,
005,
051,
00c,
031,
fdf,
00b,
fe8,
004,
01f,
fdf,
03c,
f7e,
ff9,
010,
ffa,
019,
fc0,
003,
ff3,
075,
01d,
018,
fe5,
04a,
087,
fe2,
016,
ffb,
04f,
e83,
038,
01e,
fee,
fdb,
010,
02e,
fed,
fa6,
006,
fc0,
004,
fd4,
015,
ff3,
059,
093,
000,
067,
fce,
00f,
fd7,
03f,
033,
03b,
fdd,
ff1,
034,
ff7,
048,
00c,
03d,
022,
00a,
fd1,
ffd,
05d,
00e,
040,
fe6,
01b,
fe2,
00e,
ffe,
fb7,
047,
f8c,
fe2,
ff7,
fde,
024,
fb9,
000,
fcb,
05f,
00d,
02a,
ffb,
00e,
078,
fc8,
ff1,
ff6,
03f,
dd3,
01d,
ff7,
00b,
fd1,
017,
009,
ffe,
000,
ffe,
f83,
014,
ff4,
03b,
fc6,
069,
089,
f7a,
06c,
fbc,
ff9,
ffe,
030,
fca,
02c,
008,
feb,
020,
fea,
026,
019,
029,
01e,
01e,
028,
fd8,
042,
007,
023,
fef,
02e,
ff5,
04c,
ff1,
f89,
054,
fa5,
feb,
007,
ffa,
021,
faa,
00c,
fe9,
058,
02e,
03d,
ffb,
fed,
04d,
fb1,
003,
ffd,
044,
e4c,
fe4,
fe1,
03b,
ffa,
01c,
02a,
fea,
04e,
fee,
f3b,
009,
01b,
043,
fe2,
038,
08b,
f63,
06d,
fcc,
000,
04c,
02b,
f00,
040,
007,
ffc,
020,
fe6,
007,
01d,
026,
026,
03d,
043,
fd4,
066,
fff,
036,
fee,
03a,
ff5,
057,
000,
f6d,
04e,
f9a,
fe7,
ff9,
02b,
016,
f76,
ff2,
fed,
00d,
ffd,
02e,
ff7,
f52,
05f,
f57,
ff5,
fec,
02e,
f35,
fd2,
fe3,
02d,
001,
00f,
063,
fbe,
070,
00f,
f19,
fb9,
03b,
043,
008,
fe3,
062,
faf,
07e,
fb0,
014,
061,
009,
e84,
053,
002,
fb0,
03f,
fe3,
016,
005,
02f,
04c,
032,
053,
fca,
069,
009,
037,
001,
023,
00d,
055,
036,
f75,
06b,
f9d,
005,
00c,
01b,
03b,
f5a,
00f,
009,
fff,
004,
029,
fef,
ebb,
051,
f66,
ff2,
ff0,
030,
f93,
fe1,
fdf,
025,
006,
ffb,
080,
fbe,
040,
fe4,
f4b,
fd3,
001,
028,
000,
fad,
06b,
01f,
053,
fcc,
037,
06a,
ffe,
e4c,
05c,
017,
fd1,
00f,
03d,
ffc,
fe1,
008,
043,
017,
05e,
fe0,
079,
017,
05e,
023,
018,
022,
06a,
03b,
f88,
05d,
f81,
fe4,
ff6,
033,
052,
f5b,
006,
01b,
fd3,
02b,
03a,
fe8,
eef,
049,
fdb,
ff5,
fe6,
03f,
fcd,
fe6,
009,
010,
fed,
fec,
079,
fb7,
ff4,
fdf,
f5c,
fb5,
fd4,
031,
023,
f84,
054,
0c1,
036,
fbb,
059,
060,
019,
e6b,
02f,
00f,
ffd,
041,
027,
02a,
fc7,
014,
04a,
fd4,
056,
fc2,
07b,
fca,
04d,
050,
019,
021,
054,
03c,
f8c,
042,
fa7,
ffd,
ff8,
02f,
032,
f54,
014,
011,
fb7,
039,
fff,
fef,
f49,
052,
fea,
014,
fe9,
032,
fc4,
fed,
009,
009,
ff8,
fe7,
041,
fe7,
fab,
fcb,
f96,
fc1,
f7c,
024,
013,
fc4,
07e,
0b5,
019,
fdc,
049,
06e,
023,
ef4,
02c,
ffa,
006,
03c,
028,
048,
fcc,
006,
03d,
f64,
095,
fc0,
084,
fea,
050,
06c,
019,
ffd,
00a,
01d,
f79,
028,
fd4,
ffe,
fee,
04c,
03e,
f71,
022,
043,
f87,
059,
ff3,
fe2,
013,
049,
026,
00d,
ff7,
026,
fe6,
fd8,
014,
01c,
fec,
fd5,
000,
fca,
f9b,
faf,
fc3,
fea,
f30,
01b,
fc5,
01c,
068,
0ca,
023,
fe1,
059,
085,
01e,
f4a,
01a,
000,
02e,
050,
043,
044,
fe7,
010,
015,
f49,
068,
fe0,
06e,
fee,
fd6,
040,
fd7,
ffb,
006,
032,
f8b,
001,
fd7,
fe2,
fcd,
04e,
056,
f6d,
012,
02f,
f2b,
053,
fe6,
ff3,
091,
035,
061,
fed,
ff3,
03e,
fd3,
fd4,
ff1,
00f,
fdd,
00e,
02c,
fc6,
f93,
ff1,
fd2,
ff4,
f49,
038,
fd0,
01d,
0aa,
074,
004,
fcc,
05d,
091,
023,
f74,
026,
009,
02c,
04b,
061,
060,
fd1,
fda,
ff6,
f5f,
075,
fd7,
067,
ff4,
f8c,
04d,
fd8,
ffe,
ff0,
035,
fa9,
fda,
fe1,
003,
fcb,
05f,
068,
f99,
01d,
009,
ec8,
050,
ff1,
fea,
099,
034,
05d,
00c,
fee,
044,
fe1,
fe0,
010,
fda,
fe5,
050,
032,
fca,
f93,
00c,
fd7,
009,
f77,
017,
fd8,
01e,
0d6,
008,
030,
fda,
066,
08b,
026,
fb5,
02d,
00b,
ffd,
069,
021,
065,
fb4,
fc7,
fe7,
f8b,
06c,
00c,
069,
fe9,
f6e,
08c,
fef,
fdc,
008,
05a,
fbb,
f9c,
fd2,
000,
fee,
00f,
07b,
fba,
049,
030,
019,
02c,
fdc,
fef,
035,
059,
fd3,
fd3,
fdd,
ffd,
fe9,
004,
0a6,
02a,
000,
08f,
035,
fc8,
004,
02d,
fd2,
ff8,
fff,
fd8,
00d,
ff8,
fec,
052,
046,
048,
fd4,
009,
ff5,
048,
fc2,
ff1,
030,
00d,
01c,
fb9,
fff,
fc7,
011,
000,
045,
036,
04e,
01e,
fe1,
ff4,
03c,
017,
01b,
070,
f9c,
fbf,
fd7,
018,
00b,
01e,
041,
fb8,
025,
04c,
fdd,
025,
ffb,
fff,
ff1,
038,
fda,
fde,
fc3,
ff2,
ff1,
fed,
055,
027,
fe7,
094,
01d,
fcc,
011,
014,
fc7,
ffe,
ff6,
ffe,
004,
fd7,
fee,
00a,
047,
022,
fb6,
fde,
fee,
03a,
f7e,
fe4,
024,
01c,
05e,
012,
fca,
fc6,
02c,
01b,
02a,
030,
023,
025,
fea,
fee,
040,
01c,
fd6,
051,
f6e,
fe5,
fa9,
04a,
002,
02c,
02b,
f6a,
ffe,
06c,
fe0,
026,
fe2,
056,
fde,
043,
fb6,
fd1,
fcd,
015,
ff3,
fba,
02f,
017,
fd3,
07c,
ff9,
ff9,
fe4,
00f,
fe6,
002,
009,
fe5,
fed,
fc1,
fe2,
ff2,
038,
02c,
f92,
00c,
018,
03d,
f5b,
fde,
026,
ff1,
060,
03d,
fb7,
fc1,
01e,
000,
011,
051,
029,
027,
000,
fe1,
049,
fe8,
fcd,
025,
f6f,
fe9,
f93,
042,
fe9,
01d,
01e,
f6f,
fe2,
051,
ff3,
045,
ff5,
05b,
fd9,
014,
fa1,
ff0,
fdc,
ff4,
ff0,
f90,
ffe,
004,
fe4,
089,
01b,
ff3,
000,
018,
fed,
fff,
fd3,
ffa,
fdc,
ff5,
ff9,
008,
06a,
063,
f86,
008,
fff,
034,
f3b,
fde,
020,
024,
086,
028,
fa3,
fdb,
011,
005,
03e,
05e,
021,
035,
ff7,
ff3,
058,
fe3,
fc7,
024,
fc1,
fe8,
f6b,
04b,
fe7,
037,
024,
fc9,
fed,
038,
fe4,
054,
fd8,
019,
fc6,
014,
f64,
fe4,
fca,
015,
fe1,
f95,
fa7,
02a,
ff0,
07a,
006,
fdd,
ffd,
01d,
013,
fdf,
fdb,
002,
fe7,
fd9,
009,
fe9,
051,
041,
fb5,
000,
ffe,
031,
f41,
ff1,
027,
050,
084,
00d,
f88,
fd9,
008,
ff7,
03b,
059,
042,
064,
ff3,
ff9,
042,
fdd,
fb6,
036,
fea,
fea,
f68,
05e,
fe9,
042,
024,
ff4,
fcd,
ff6,
00a,
035,
fe9,
ff2,
fcf,
021,
f4d,
fd6,
fc4,
012,
fc4,
fb7,
f3b,
04d,
01c,
0c8,
020,
fd5,
004,
00e,
044,
fff,
ff9,
fcf,
017,
fe2,
ff0,
011,
04f,
028,
008,
010,
012,
042,
f0e,
ffb,
01e,
055,
072,
01d,
fa8,
ff8,
047,
fee,
033,
027,
034,
055,
fcd,
ff6,
038,
fda,
fb0,
03b,
02e,
fe0,
f95,
043,
00d,
039,
002,
054,
fce,
ff8,
fda,
03f,
fed,
f57,
fe7,
034,
f3b,
fe4,
fa2,
02c,
fe0,
fd7,
ee7,
040,
006,
0a9,
025,
fe0,
fdb,
053,
03b,
00c,
fe2,
fdd,
01c,
fc6,
00a,
01e,
03f,
002,
02f,
02a,
01f,
052,
eb3,
013,
03e,
067,
045,
003,
fb4,
034,
055,
fe3,
032,
fdc,
031,
025,
fe6,
003,
048,
fdd,
fc2,
030,
04d,
fd0,
faf,
03f,
ffa,
02f,
01d,
081,
fdb,
fec,
fa2,
026,
fe2,
f20,
ffd,
ffc,
f75,
fbe,
fb0,
03a,
fd2,
fb1,
f58,
02e,
003,
0aa,
034,
ff1,
ff7,
05b,
03f,
004,
00e,
fd5,
058,
fda,
009,
017,
036,
fca,
032,
029,
034,
029,
e97,
002,
00e,
096,
005,
009,
fbc,
06a,
03c,
009,
03a,
fb2,
020,
016,
fd8,
ff9,
034,
fff,
fcc,
006,
050,
fbb,
fd9,
01f,
fce,
026,
018,
072,
fd8,
fd2,
f7c,
009,
fde,
fa4,
fde,
002,
f7a,
fd7,
fba,
03d,
005,
f6c,
004,
027,
fe9,
09a,
fe3,
010,
ff9,
02a,
05f,
004,
ff5,
ffd,
07d,
feb,
006,
ffa,
01d,
fcb,
011,
01c,
00d,
025,
ec8,
ff0,
018,
090,
fc8,
018,
fc1,
09c,
001,
ffb,
03a,
fa5,
012,
ff0,
fe7,
fff,
02e,
feb,
ff7,
018,
02c,
fba,
fed,
01c,
fd0,
00a,
036,
079,
fc5,
fe0,
f7d,
009,
fca,
03f,
fd5,
027,
f7c,
fea,
fc0,
069,
004,
f8b,
03c,
ff9,
fbd,
074,
000,
ffe,
fd7,
00a,
08b,
013,
001,
ff1,
039,
fe9,
040,
fe0,
01d,
fd2,
022,
040,
008,
01e,
f41,
fe2,
026,
081,
f7c,
00a,
fb9,
0ba,
fdb,
00f,
033,
faf,
021,
fe3,
fcb,
ffb,
021,
ff0,
00b,
00d,
034,
fc7,
008,
011,
fe3,
025,
03c,
05e,
fd4,
fd3,
faa,
00e,
fc2,
096,
fd1,
038,
fd6,
ff0,
fd3,
04d,
02d,
fc5,
037,
00f,
fc7,
065,
007,
ff4,
fe1,
015,
081,
ff2,
ff7,
fea,
fdb,
fed,
075,
fec,
029,
fd9,
02f,
02a,
fed,
045,
f8b,
fed,
017,
05f,
f5c,
003,
fbd,
0d5,
ff6,
029,
01a,
ff0,
02f,
fe0,
ff8,
ff1,
03f,
fe6,
02f,
00b,
036,
ff9,
ff8,
019,
feb,
01a,
034,
052,
fcc,
fd0,
fc4,
00a,
fb1,
097,
fb8,
034,
feb,
ff3,
ff2,
057,
061,
fcd,
045,
000,
fee,
07e,
ff6,
003,
fe2,
00a,
059,
fc1,
fdd,
fc2,
f76,
034,
0b9,
fde,
021,
fe4,
021,
021,
fb8,
033,
fe3,
ff2,
014,
062,
f83,
ff9,
008,
0d4,
013,
033,
02d,
000,
030,
fd8,
00e,
ffa,
016,
ff1,
019,
001,
009,
fff,
002,
01e,
ff3,
011,
043,
065,
feb,
ff3,
fe6,
ffd,
fc1,
067,
fc0,
05a,
fb5,
ff3,
006,
051,
074,
018,
043,
feb,
000,
088,
ff4,
fdd,
013,
fea,
06f,
fc6,
fbc,
fb6,
f7b,
069,
0c5,
013,
027,
015,
003,
ffb,
fbd,
ff4,
fea,
fd7,
017,
074,
f93,
010,
036,
0e7,
023,
02b,
00d,
053,
059,
fd4,
02f,
fe6,
018,
000,
000,
00b,
fd6,
039,
fea,
013,
ff9,
003,
029,
061,
005,
fcd,
fd1,
fe6,
fc0,
fe8,
ff4,
04d,
fac,
ff6,
ff5,
045,
065,
020,
037,
008,
010,
08a,
fe7,
ff8,
027,
fd4,
034,
fbb,
fdd,
fcc,
faf,
046,
0ca,
024,
021,
029,
fdf,
fe4,
fc8,
fd3,
fd9,
ff8,
ff9,
053,
fad,
046,
026,
0d5,
ffd,
013,
ff8,
061,
04b,
fd4,
021,
fe3,
01b,
ff7,
022,
025,
f8b,
01e,
fda,
00c,
fee,
02a,
045,
028,
01d,
fbf,
fe8,
fcd,
fbf,
f34,
020,
05b,
fe4,
ffe,
00a,
038,
06e,
042,
067,
00c,
038,
090,
00c,
008,
015,
fe0,
007,
fc9,
fd5,
fea,
ff1,
fd0,
0bb,
01c,
053,
03c,
ff9,
007,
ff6,
fc6,
fcb,
fd0,
fe2,
06f,
fc1,
03c,
027,
0d0,
00c,
fed,
fed,
041,
05a,
fe4,
035,
fee,
017,
000,
03e,
009,
f71,
036,
fae,
00a,
007,
04a,
043,
ff7,
01e,
fc2,
030,
fec,
fc0,
f68,
03c,
05e,
012,
ffc,
00b,
028,
040,
048,
067,
fff,
ff8,
071,
016,
fe7,
fd3,
ff7,
fc3,
fe6,
fef,
028,
023,
f4b,
0bc,
01d,
04a,
02b,
028,
ffd,
002,
ff6,
003,
ffb,
fc9,
066,
fe6,
04c,
00d,
09c,
fe5,
fdb,
fda,
042,
055,
fdd,
028,
fe8,
001,
ff7,
018,
02b,
f49,
05d,
fbd,
001,
ffd,
05e,
04b,
fca,
01a,
fc4,
086,
000,
ffd,
fb5,
035,
064,
013,
ffd,
fef,
039,
ff7,
047,
050,
00e,
ff7,
069,
01c,
feb,
f82,
011,
faf,
026,
fe7,
00e,
03d,
f8d,
0be,
04a,
04a,
004,
00e,
fe2,
fe4,
01e,
000,
001,
fc4,
09b,
007,
033,
029,
097,
ff4,
fed,
fd4,
00f,
04e,
fdf,
01a,
fe0,
ffd,
fdc,
fea,
022,
f29,
040,
fdb,
fec,
012,
04b,
045,
fcf,
021,
fd0,
07d,
ffd,
fe5,
fe1,
029,
058,
fff,
003,
ff3,
024,
f8c,
052,
00b,
028,
fed,
026,
03b,
fee,
f6a,
02f,
fab,
02e,
ff5,
01c,
001,
01f,
0b8,
042,
03c,
fdf,
00d,
fd3,
ffe,
047,
02f,
005,
fcf,
06a,
035,
031,
011,
08a,
006,
017,
fca,
fde,
058,
ffe,
022,
fef,
000,
fd9,
ff0,
027,
ef8,
024,
ff6,
000,
00c,
00d,
036,
fd3,
029,
fe1,
06f,
010,
fee,
ff6,
037,
06d,
025,
029,
ffa,
032,
eaa,
03c,
ff6,
016,
ff7,
02e,
030,
ff4,
f84,
000,
fb4,
027,
fd9,
00f,
ffd,
06b,
0c3,
feb,
017,
fc1,
00c,
fd4,
004,
056,
016,
00c,
fd5,
05d,
02d,
028,
ffb,
05d,
fff,
027,
fe0,
f93,
086,
01f,
027,
ff3,
010,
fd7,
ff7,
ffd,
ef0,
02c,
000,
015,
fe2,
001,
04c,
fd5,
01d,
fd7,
04e,
045,
ff7,
01e,
ff6,
04a,
007,
011,
fe0,
021,
e15,
020,
ff9,
012,
ff8,
033,
034,
fef,
fd2,
fef,
f7d,
026,
fe2,
023,
fe9,
057,
0c8,
f7a,
011,
fa1,
ff5,
fd1,
007,
00e,
026,
026,
fd5,
050,
023,
01b,
00d,
06f,
ff5,
026,
007,
fad,
08a,
01b,
01b,
ff9,
00b,
fc8,
003,
ff1,
ec0,
02c,
009,
003,
001,
ff6,
032,
fdb,
004,
fed,
026,
019,
009,
008,
fb4,
04f,
fb3,
ff7,
fe2,
030,
e66,
ffd,
fda,
003,
fe2,
04a,
028,
ff8,
05d,
00a,
f47,
feb,
fe9,
061,
ffe,
04b,
08d,
f4b,
009,
f97,
ffa,
fea,
003,
fa7,
012,
02e,
fc7,
058,
fd6,
006,
02f,
060,
043,
042,
043,
fce,
07f,
01b,
021,
002,
036,
fd3,
037,
019,
ec4,
035,
013,
00f,
ff1,
021,
05b,
fc8,
ffd,
ff8,
015,
01a,
025,
002,
f4f,
06c,
f68,
fd8,
ff8,
017,
f22,
fcb,
fce,
fef,
00a,
04f,
02e,
ff6,
086,
fed,
f1e,
fa2,
028,
05d,
002,
ff8,
094,
fc0,
000,
f9a,
004,
03f,
012,
f42,
00b,
052,
f8c,
037,
fde,
ff9,
ffb,
04a,
01a,
037,
054,
fd4,
058,
001,
058,
ffc,
03b,
feb,
05b,
038,
ec3,
045,
009,
00c,
fe9,
03a,
064,
f9c,
016,
017,
fdd,
003,
032,
fe9,
e92,
060,
f5c,
fe2,
fea,
011,
f92,
ff0,
fe6,
ff4,
016,
036,
05b,
ffa,
06d,
fe4,
f6e,
f7b,
019,
058,
019,
fb7,
07a,
01b,
019,
f8a,
02d,
06f,
029,
ec1,
ffd,
03e,
fb5,
04f,
002,
000,
fe9,
032,
014,
042,
060,
fdf,
07d,
fed,
081,
01e,
00f,
001,
043,
039,
eed,
057,
ffb,
007,
004,
03a,
066,
f28,
022,
032,
fd3,
00f,
032,
fff,
eb0,
035,
f8a,
fda,
fc6,
037,
f9e,
fef,
fe9,
016,
ffd,
00d,
054,
fd9,
00c,
ff4,
f89,
fbc,
fed,
04b,
007,
fa5,
095,
0a7,
015,
fad,
035,
044,
02b,
e6a,
ff2,
030,
fde,
04a,
00b,
016,
fc5,
011,
034,
fdc,
06d,
fcf,
097,
fc7,
07b,
025,
006,
005,
034,
03a,
eff,
02d,
fed,
013,
fe3,
022,
06a,
f27,
033,
044,
fb5,
023,
ffd,
022,
f2f,
024,
fde,
fec,
fdb,
03b,
fb9,
ffe,
fed,
002,
008,
ffc,
02f,
fdb,
fb1,
fec,
fc2,
fc7,
f85,
025,
fd8,
fd4,
09b,
0cb,
01d,
f8a,
055,
05f,
032,
ea6,
fe5,
ffd,
ff1,
051,
02e,
00f,
fca,
002,
029,
f8e,
086,
fd0,
09a,
fdb,
022,
03e,
ffc,
00d,
02c,
012,
f28,
fe9,
fd6,
ffd,
fcc,
03e,
075,
f44,
045,
056,
f93,
053,
fc7,
ff4,
ff5,
025,
024,
fe0,
fd3,
046,
fda,
fe5,
fc4,
02e,
fd5,
ffe,
009,
ff6,
fab,
fbb,
fdd,
fe3,
f2f,
011,
fd9,
018,
090,
0d2,
01d,
fad,
046,
088,
037,
f3a,
fbc,
fed,
018,
051,
03c,
00e,
ff5,
ff6,
001,
f89,
090,
ff2,
074,
fec,
fac,
015,
00b,
00f,
007,
00b,
f4e,
fee,
fa1,
fed,
fd5,
049,
063,
f89,
02a,
04b,
f4b,
054,
ffb,
001,
06a,
00c,
064,
005,
fcf,
048,
fc8,
001,
fe5,
022,
fea,
02b,
018,
fca,
fad,
fce,
000,
fe1,
f36,
ffd,
fc6,
032,
0a5,
08a,
01e,
f9b,
02c,
0a0,
024,
f63,
fcb,
fd9,
04a,
05b,
047,
038,
fcc,
fc2,
fe4,
f9e,
073,
fd7,
069,
ff1,
f8c,
011,
fe6,
fff,
018,
036,
f64,
fc7,
fab,
fcc,
fa5,
05d,
071,
fa9,
024,
029,
f0b,
056,
02d,
fe8,
0b6,
005,
06f,
012,
fc1,
069,
fdf,
000,
fe5,
005,
fb1,
03e,
000,
fde,
fa4,
fff,
ff5,
022,
f54,
031,
fcb,
037,
0d7,
03a,
01a,
fc1,
054,
09b,
01d,
f96,
fe6,
ff5,
026,
075,
01b,
069,
f93,
fa4,
fdc,
fa6,
06b,
ffa,
067,
fe6,
f73,
084,
fc9,
ff7,
fef,
043,
fb7,
fd2,
fc3,
002,
fb7,
002,
088,
fbf,
024,
014,
021,
040,
fe1,
ffd,
013,
03a,
fde,
fd1,
ff1,
ff7,
00a,
024,
070,
049,
fd2,
080,
03b,
fca,
004,
013,
fdb,
fed,
fcd,
fce,
017,
ff4,
fc9,
039,
032,
03a,
f9a,
011,
00f,
058,
fba,
fdc,
01b,
ff7,
028,
005,
001,
fa9,
018,
ffc,
033,
05e,
035,
02b,
ff3,
fdb,
015,
02b,
017,
06f,
f83,
fc0,
fdb,
033,
fc7,
014,
043,
f9d,
016,
04a,
000,
02c,
ff8,
025,
004,
03a,
ff4,
fce,
fd2,
fe8,
00f,
fdd,
000,
01e,
fde,
084,
014,
fde,
ff2,
009,
fb4,
ffd,
fc0,
fff,
fe9,
fca,
fca,
003,
fff,
023,
f88,
001,
03a,
04e,
f9d,
ff3,
01a,
00a,
045,
043,
fc0,
fbc,
037,
ffa,
019,
03d,
029,
01d,
ffb,
fd0,
032,
01d,
fff,
03d,
f7c,
fee,
fc0,
045,
fe8,
00a,
021,
f84,
fec,
033,
fce,
03c,
fe8,
055,
fe7,
044,
fba,
fde,
feb,
006,
fff,
f6e,
ff9,
004,
fe0,
082,
007,
fea,
000,
004,
fca,
002,
fe1,
01f,
000,
fdb,
fe1,
01b,
01b,
04f,
f81,
004,
01e,
055,
f7f,
fd4,
020,
04e,
047,
048,
fca,
fd6,
018,
011,
023,
05c,
002,
030,
023,
fe4,
010,
ff4,
fb8,
045,
fbf,
fc2,
fae,
046,
fc7,
01c,
02d,
f8d,
010,
02c,
fdd,
01d,
007,
04c,
fbb,
037,
f8f,
fda,
fc0,
01d,
011,
f57,
fe2,
ff2,
009,
05d,
fe5,
fe0,
ffb,
00e,
fe2,
002,
fd1,
ff3,
fe7,
000,
ff3,
ff0,
040,
041,
fa1,
010,
033,
02d,
f6e,
fd4,
021,
05d,
063,
045,
f9b,
fca,
ffd,
009,
034,
061,
02e,
05a,
01a,
fd3,
015,
ff4,
fb2,
03a,
fcb,
fe5,
f89,
054,
fd2,
012,
01b,
ff1,
00c,
00c,
fcc,
017,
003,
01a,
fcf,
035,
f5f,
fdf,
fd3,
01a,
ff0,
f91,
f71,
009,
010,
068,
028,
fe8,
011,
00e,
025,
ffd,
fd8,
00d,
fe3,
fe7,
015,
001,
03a,
03d,
fc6,
ff7,
018,
042,
f4b,
fef,
01b,
056,
051,
032,
f8c,
fcd,
021,
000,
047,
072,
056,
060,
ff0,
ffc,
ff9,
ff1,
fc6,
03f,
02a,
fd7,
fb3,
056,
ff8,
006,
022,
02b,
fed,
ff2,
ffa,
033,
006,
fd2,
fd7,
035,
f75,
fe8,
fb1,
021,
fce,
fb4,
f11,
000,
021,
099,
020,
fcc,
00b,
00d,
01f,
fe9,
fcb,
fdf,
fe7,
fd5,
006,
00d,
01b,
048,
014,
ff8,
00b,
042,
f18,
fff,
029,
07b,
070,
038,
f9f,
fab,
03f,
fef,
044,
039,
01f,
03d,
006,
ffb,
010,
ff3,
fb5,
02f,
036,
fcd,
fa7,
06d,
011,
028,
00a,
07b,
fbe,
fd0,
fe7,
010,
ff0,
f4c,
fda,
026,
f95,
fe9,
fbd,
00a,
ff3,
fca,
f2c,
022,
ffa,
0b0,
006,
fc5,
ff2,
02f,
038,
fd7,
ff6,
fcb,
038,
fe6,
fd8,
02d,
017,
fd1,
02e,
ffe,
011,
04c,
ef5,
006,
016,
093,
03d,
043,
fbd,
fb3,
036,
fee,
03c,
fdd,
ffa,
00e,
fe9,
00a,
016,
ffe,
fce,
022,
04d,
fae,
fc7,
076,
02d,
008,
017,
06c,
fe0,
fd4,
fc6,
015,
ffe,
f4b,
fdc,
024,
f92,
fea,
fc1,
01c,
ff9,
f98,
fe6,
034,
007,
0a5,
00d,
fd5,
fdf,
03b,
04d,
fda,
ff9,
fd3,
08f,
fa2,
fd7,
00b,
ff4,
fc5,
ffd,
019,
01c,
04a,
f11,
003,
008,
0ab,
002,
04a,
fb4,
fdd,
01f,
fd6,
05d,
faa,
017,
ff5,
fe7,
ffd,
041,
fce,
fcf,
000,
032,
f9b,
fff,
078,
032,
000,
041,
05f,
fd2,
fcc,
fd9,
002,
007,
ffc,
fd6,
017,
fbf,
fe5,
f9f,
037,
fe5,
f71,
031,
03c,
fea,
0a1,
fe7,
fe5,
fd7,
01b,
04b,
fe3,
fe1,
ff1,
059,
fc5,
fc2,
003,
fe1,
fb9,
008,
019,
ffd,
023,
f6f,
003,
00d,
0a1,
fb4,
041,
f97,
fe4,
00b,
ff6,
03d,
fa9,
013,
fec,
fde,
ffa,
051,
fda,
ff2,
002,
015,
fc5,
012,
04c,
061,
003,
02b,
037,
fde,
fd2,
fde,
00b,
ff2,
069,
fce,
032,
fc8,
fe3,
faa,
03e,
fe9,
fa4,
03d,
029,
fde,
078,
fd6,
fd4,
fdc,
010,
086,
000,
ff3,
01d,
fef,
fdf,
feb,
ffc,
fd5,
fe7,
00b,
032,
000,
008,
f9c,
004,
034,
094,
f6a,
024,
fa8,
038,
000,
01d,
028,
faa,
fed,
fc8,
001,
005,
060,
fcc,
008,
fd3,
01c,
fd4,
032,
038,
063,
ffe,
02a,
030,
fe2,
fc8,
fd6,
ff7,
fe8,
09b,
fbb,
042,
fea,
fe8,
fce,
037,
00b,
fbf,
045,
01f,
fd8,
063,
ff1,
fe6,
fcd,
fe6,
060,
fb0,
000,
fe9,
f9b,
029,
fe9,
ff4,
fb2,
fd7,
026,
05a,
ff6,
038,
fd2,
006,
03d,
07d,
f7a,
00f,
fd3,
026,
00d,
008,
049,
fe3,
004,
fe5,
009,
025,
03c,
fe3,
031,
fdb,
00c,
fc3,
05a,
041,
058,
00c,
008,
03a,
00c,
fb9,
fe4,
fe9,
fc0,
081,
fa6,
05f,
001,
006,
ff8,
047,
02f,
fc7,
056,
00f,
ff9,
090,
ff0,
ff0,
fd6,
014,
06b,
f9f,
fe9,
fd6,
f5e,
040,
016,
006,
fac,
fd4,
011,
039,
fff,
000,
fe9,
fef,
041,
085,
fa1,
00c,
012,
046,
037,
01a,
03c,
025,
ffc,
fe9,
041,
ff2,
038,
fd9,
01f,
ffe,
fd2,
000,
082,
034,
06e,
000,
01f,
066,
00b,
fed,
fde,
fc8,
fa0,
057,
fbb,
061,
fa8,
ff8,
ff5,
046,
04c,
ff1,
047,
009,
025,
089,
ff8,
fed,
036,
ffa,
068,
fab,
ff6,
fdd,
f76,
093,
036,
00b,
f9f,
fef,
ff1,
007,
fc6,
001,
fee,
fca,
025,
085,
fca,
01b,
03c,
051,
05a,
011,
01e,
05c,
010,
fd3,
02b,
ff4,
03c,
fea,
002,
000,
fa7,
01e,
096,
031,
056,
01f,
027,
027,
00e,
fe3,
fc9,
fdc,
fb2,
fa0,
fe8,
060,
f98,
ffc,
fde,
02b,
041,
019,
048,
008,
035,
07e,
015,
fe8,
035,
fdb,
02e,
fa8,
fd2,
fdd,
fbd,
05d,
044,
011,
f8c,
ff1,
fbf,
fbf,
fc1,
fc5,
003,
fc2,
01b,
07d,
fc2,
031,
022,
083,
036,
ff3,
013,
040,
034,
fcd,
038,
fe0,
021,
fe2,
02f,
ffe,
fb7,
002,
061,
035,
06d,
026,
02f,
fee,
019,
fef,
feb,
fd5,
f8e,
f4f,
000,
044,
fea,
00e,
fc9,
01c,
046,
029,
041,
fef,
044,
093,
021,
fe7,
05d,
ff5,
fe0,
fd5,
fd3,
fd4,
fe7,
fb3,
079,
02b,
f8e,
fe7,
fe1,
fea,
fdd,
fd7,
fd7,
fb8,
00d,
07d,
fd4,
031,
036,
089,
010,
fe1,
fe7,
039,
049,
fba,
02e,
fdc,
028,
ff0,
005,
007,
f98,
02e,
066,
024,
039,
02d,
025,
fdc,
027,
fdc,
00c,
ff6,
fa6,
fa4,
ffc,
030,
00c,
009,
fcb,
036,
057,
035,
053,
ff8,
00b,
075,
034,
ff3,
fec,
010,
fd0,
012,
fe4,
fdd,
027,
f2c,
085,
02d,
f80,
fec,
006,
ff1,
fa7,
fce,
fb7,
fc1,
ff5,
07c,
02b,
026,
039,
083,
01b,
003,
fc2,
018,
058,
fe9,
004,
fe8,
00e,
feb,
ffb,
034,
f8d,
01d,
04d,
048,
016,
03b,
050,
fcf,
024,
ff5,
03a,
ff2,
f92,
ff5,
038,
04c,
02d,
ffc,
fc4,
006,
018,
04b,
01b,
027,
ffc,
04b,
031,
fd9,
f9d,
038,
fa5,
032,
ff1,
ff6,
009,
f8d,
075,
05e,
f81,
fc1,
026,
fec,
f9b,
00e,
ff5,
fed,
fe5,
083,
039,
031,
043,
05d,
013,
008,
fab,
fcf,
075,
ff1,
00e,
fec,
028,
fda,
fbc,
017,
f74,
025,
059,
019,
033,
05b,
058,
fba,
039,
000,
06a,
00f,
f96,
fea,
051,
046,
020,
ffd,
fc8,
03b,
fdb,
03d,
00b,
03c,
ff8,
051,
048,
fe6,
f64,
02b,
fac,
056,
fdf,
ff4,
fd6,
048,
088,
050,
f8a,
fd0,
02d,
fc4,
fa2,
025,
012,
ff4,
fde,
06d,
050,
03c,
01d,
056,
00b,
023,
fac,
fa7,
06a,
fe9,
006,
002,
02c,
fca,
fba,
02a,
f2c,
020,
06d,
01f,
011,
017,
05f,
fbf,
03e,
fdb,
079,
005,
fa4,
004,
057,
051,
028,
01b,
fcf,
018,
f13,
036,
ff4,
033,
005,
03d,
032,
fcd,
f76,
017,
f87,
02e,
fc7,
011,
fec,
067,
090,
fdc,
f69,
fcb,
01c,
fe6,
fd7,
022,
ffe,
ffc,
fc5,
03f,
04a,
01f,
027,
06a,
018,
01c,
ff0,
f7d,
075,
00a,
002,
fe2,
01e,
fc4,
fc1,
02d,
ef2,
025,
065,
037,
fed,
013,
060,
fcc,
054,
ff9,
05e,
005,
fdc,
00d,
01b,
037,
ffe,
00a,
fd3,
011,
e2b,
00f,
fe7,
001,
01f,
036,
037,
ff0,
fad,
00d,
f78,
011,
fdb,
04e,
fec,
056,
08c,
f48,
f69,
fb2,
ffd,
fda,
fdb,
014,
ff3,
019,
fd3,
059,
039,
00f,
00f,
058,
000,
02a,
ff3,
f9a,
0a5,
014,
027,
ff7,
018,
fb6,
fdd,
00a,
eb3,
018,
03e,
024,
fee,
014,
04e,
000,
026,
ff4,
02b,
01b,
fe0,
ff8,
fb4,
03c,
fe5,
00d,
fcb,
033,
e61,
ffe,
fe0,
fdf,
001,
069,
00a,
fdf,
04f,
00a,
f58,
fdc,
ff3,
063,
ff0,
057,
0a8,
f56,
f70,
f82,
009,
023,
ff2,
ff1,
fd3,
037,
fb5,
06d,
029,
006,
01c,
04c,
013,
037,
01a,
fd7,
0ab,
002,
03c,
015,
01b,
fcf,
006,
018,
e6b,
009,
01f,
03f,
ffd,
012,
070,
ff1,
026,
00a,
013,
015,
01c,
ff8,
f3f,
036,
f81,
fdc,
fdc,
00c,
ef7,
000,
feb,
fec,
013,
095,
01b,
ff4,
076,
ff6,
f84,
f99,
023,
07f,
008,
fed,
08f,
f88,
f8f,
f9c,
010,
01d,
fe4,
fbc,
fd5,
05c,
f9c,
039,
fff,
008,
ff7,
04d,
032,
02f,
034,
006,
080,
006,
03f,
017,
039,
fad,
051,
029,
e7e,
033,
023,
02f,
ff3,
01f,
058,
fd1,
033,
010,
ff5,
023,
00b,
003,
e6d,
01c,
f56,
fe1,
fd3,
ff3,
f66,
fc5,
ff2,
fff,
01c,
061,
00f,
fd9,
06f,
fc1,
fda,
fb1,
016,
063,
fff,
f90,
0ac,
00b,
fb7,
fa9,
034,
03d,
01b,
f45,
fcb,
026,
fad,
038,
ff8,
fff,
fc5,
03f,
017,
fd4,
02b,
ff9,
050,
ff5,
063,
01d,
00a,
fb8,
055,
03c,
ebd,
00c,
00d,
01e,
fe1,
04c,
078,
f7c,
03a,
044,
fdf,
011,
011,
015,
e9d,
003,
f9d,
fcb,
fe4,
ff9,
f97,
ff1,
006,
ff2,
00f,
02d,
01e,
fd6,
018,
fd8,
fe8,
fa3,
004,
043,
026,
f6a,
0a3,
06e,
fe4,
faa,
02a,
04e,
035,
edc,
fb4,
018,
fcd,
036,
008,
fdd,
fa4,
017,
001,
fca,
05a,
00b,
072,
fd6,
064,
031,
fdf,
fbb,
02a,
043,
ece,
fe0,
002,
033,
fe1,
043,
065,
f1e,
024,
04a,
fd0,
00d,
ff6,
01e,
f1f,
ff6,
fcb,
fc0,
fe6,
ffd,
fc4,
fe6,
ffd,
feb,
ffd,
02f,
fec,
fce,
fce,
fd5,
007,
fc9,
fa6,
fdd,
fff,
fe8,
0c1,
0c3,
fe3,
f88,
038,
04f,
016,
efb,
f82,
006,
fe9,
05a,
00a,
01b,
fd2,
ffe,
ff6,
fbd,
06f,
00b,
033,
fc9,
000,
010,
fe5,
fe7,
036,
018,
ef3,
fac,
ff4,
00f,
fd1,
02e,
077,
f42,
030,
054,
fab,
04e,
fe9,
ffd,
fcd,
002,
02e,
fce,
fef,
016,
fd8,
00d,
ffe,
ff9,
000,
03e,
fe7,
fe6,
faa,
f80,
011,
fb1,
f40,
fc8,
fed,
01c,
0a3,
0af,
005,
fab,
040,
067,
043,
f45,
f47,
fca,
004,
049,
035,
02d,
fe3,
019,
fe7,
faf,
07b,
ff0,
04d,
fe1,
f66,
fde,
fec,
fec,
024,
03a,
f32,
fb9,
fe7,
007,
fda,
035,
05b,
f76,
05f,
066,
f7c,
02f,
000,
ff2,
066,
fcf,
081,
fe5,
fc8,
024,
fee,
fea,
fed,
027,
01a,
029,
ff0,
ff7,
fba,
f84,
008,
fff,
ef8,
fd7,
fc6,
01e,
0b9,
07f,
ff7,
fa9,
03a,
08f,
029,
f56,
f70,
fbe,
039,
059,
03b,
01d,
fbb,
fdc,
ffa,
fba,
061,
fd4,
043,
fe5,
f78,
01d,
fd8,
ffc,
029,
00f,
f6b,
fa7,
fa2,
fcf,
fb5,
04b,
04d,
fb5,
050,
039,
f33,
05a,
030,
005,
0ac,
fe0,
077,
010,
fbf,
05f,
fda,
ff0,
fd1,
012,
fcc,
037,
013,
fc5,
fed,
fce,
030,
fff,
f3a,
00a,
ffa,
027,
0ec,
03d,
010,
fd1,
04f,
0d2,
028,
fa0,
f87,
fd2,
057,
053,
00f,
038,
f9c,
fcb,
fd3,
fe7,
05f,
fe4,
03f,
fc3,
f7a,
052,
fbb,
fdd,
fed,
05a,
f8e,
fe6,
fdb,
008,
f9f,
ffa,
05d,
fc2,
003,
ff6,
015,
051,
fe8,
032,
038,
046,
fd7,
fce,
01e,
fdb,
011,
00d,
042,
02f,
ffc,
079,
009,
fe2,
fe9,
012,
004,
fe8,
fd9,
fbf,
029,
fe2,
fd9,
030,
010,
03f,
f93,
018,
007,
064,
fb9,
fec,
019,
ffd,
01e,
020,
ff0,
fbb,
007,
fdb,
02d,
056,
047,
01e,
fec,
fda,
021,
030,
024,
062,
f90,
fd5,
fdf,
041,
fac,
00d,
043,
fa7,
002,
030,
fe1,
063,
fe3,
016,
ff1,
03d,
006,
fd7,
00d,
fe7,
003,
fd7,
fe4,
fee,
fde,
06f,
fed,
ff7,
fe4,
016,
fdb,
fd0,
fc6,
ff2,
009,
ff8,
fcb,
00f,
018,
049,
f98,
ffb,
03d,
039,
fa9,
ff8,
00c,
01d,
02b,
044,
fa6,
fdf,
005,
00d,
03c,
040,
02e,
020,
ffd,
fdc,
00f,
009,
004,
037,
fc1,
fb9,
fbb,
03d,
fa7,
017,
037,
f9e,
015,
033,
fce,
023,
005,
06d,
ff3,
050,
fee,
fd6,
028,
028,
01f,
f58,
fce,
ff3,
01d,
04a,
fe7,
003,
fec,
004,
fef,
fcc,
fcf,
016,
fed,
007,
fd2,
00b,
00a,
04d,
f9a,
fff,
050,
039,
fa4,
fe7,
01d,
02d,
031,
033,
fb5,
fb3,
000,
028,
026,
052,
03a,
031,
017,
fe0,
fd5,
004,
fdd,
01f,
fd0,
fef,
fcc,
02e,
fcf,
016,
034,
fc7,
00b,
01a,
fc2,
023,
ff5,
059,
feb,
034,
fd2,
ff0,
01d,
047,
029,
f3e,
fc7,
fe1,
014,
061,
ff0,
fe4,
004,
01f,
00d,
003,
fc2,
018,
fee,
ff3,
fde,
ff2,
ffe,
04d,
fb7,
00f,
021,
03d,
f7f,
fe0,
012,
040,
04c,
032,
f9d,
fd3,
ff5,
00a,
02c,
060,
051,
035,
023,
fee,
ff4,
ff5,
fba,
031,
fe7,
fe2,
fd6,
057,
fde,
fed,
02c,
ff1,
002,
fec,
fde,
03f,
fef,
016,
fd8,
04e,
ffd,
ff1,
00f,
019,
010,
f8f,
f4d,
ff1,
027,
08c,
00f,
fda,
014,
025,
027,
00e,
fb9,
003,
fd6,
fd9,
fda,
015,
fff,
053,
fe1,
fe3,
022,
01b,
f64,
fea,
017,
07a,
053,
03e,
f92,
fbb,
001,
ff5,
047,
051,
043,
036,
004,
fd0,
fb5,
003,
f8f,
032,
02d,
000,
fca,
04e,
fc5,
ffc,
03e,
055,
ff4,
fef,
004,
03c,
fea,
fb4,
ff7,
059,
fe3,
fe1,
ff7,
02f,
00b,
fad,
ef4,
013,
014,
0a5,
016,
ffa,
ffc,
017,
02a,
fee,
fca,
ff9,
fee,
fe5,
ff4,
01c,
fe2,
011,
006,
ffd,
fe1,
046,
f39,
004,
002,
080,
069,
04f,
f85,
fa0,
00e,
ffe,
032,
029,
018,
019,
fe4,
ff7,
fdd,
fdc,
fb5,
022,
03f,
fd2,
fc6,
05b,
ff7,
00b,
033,
063,
ff2,
fdf,
018,
022,
feb,
f1b,
fec,
03a,
ff7,
fd6,
000,
ff7,
009,
fba,
f7b,
002,
00d,
0a0,
012,
fd7,
fd7,
026,
03a,
ff9,
fe8,
fd0,
03c,
fdc,
fc4,
ffe,
fe2,
ff2,
ff6,
001,
feb,
03a,
f43,
00b,
025,
09f,
048,
067,
fb2,
f77,
058,
fed,
039,
ff2,
015,
006,
fcb,
feb,
ffd,
fdc,
fec,
015,
031,
f91,
fd5,
04b,
00b,
fef,
03f,
072,
ff0,
fd3,
00f,
ffc,
025,
f6f,
fe4,
04d,
000,
fe4,
011,
00a,
fdf,
f7f,
020,
034,
006,
09c,
ffb,
fdc,
fcf,
039,
05f,
fe5,
fee,
ff3,
071,
fb1,
fcd,
009,
fc9,
ff3,
ff1,
031,
fe4,
035,
f79,
013,
038,
0ad,
ff8,
053,
f94,
f4c,
039,
fed,
03c,
fa2,
013,
ff8,
ff0,
ffc,
02a,
fd9,
ffc,
fe9,
000,
f95,
fff,
058,
03e,
fdc,
04a,
054,
fea,
fc0,
027,
ffe,
01e,
00e,
fdb,
034,
ff5,
002,
fdc,
019,
fec,
f93,
035,
044,
ffe,
08f,
fef,
ff8,
fc5,
030,
061,
fdd,
ffc,
024,
052,
fc1,
fd8,
005,
fd6,
fed,
fd5,
01d,
fde,
029,
f9b,
011,
038,
0b0,
f90,
03a,
f97,
f2a,
019,
00f,
027,
f88,
fec,
fd7,
ffa,
fe6,
02b,
fcf,
01c,
fe5,
00c,
fb2,
038,
027,
048,
ff1,
01c,
058,
fee,
fbf,
002,
fe6,
005,
09d,
ff1,
035,
ff2,
feb,
fe6,
01d,
feb,
fbd,
054,
011,
fbd,
07f,
fd9,
fdd,
fe5,
02d,
070,
fb0,
fe6,
01a,
fe4,
fdb,
fd3,
ff3,
fbc,
009,
fe8,
02b,
000,
010,
ff2,
008,
036,
08b,
f7d,
02f,
fc6,
f1b,
006,
03a,
018,
fce,
fd8,
fbf,
009,
003,
04d,
fd1,
031,
fce,
002,
fb3,
04a,
060,
055,
ffa,
015,
002,
fff,
f9f,
fdf,
fd0,
01d,
090,
fd3,
04f,
022,
fd5,
fea,
00b,
fd6,
fe6,
063,
00c,
fcf,
04f,
fde,
fe0,
feb,
017,
06b,
f85,
fea,
feb,
f6c,
019,
fc1,
024,
fda,
fef,
00e,
056,
007,
016,
ff6,
004,
038,
0a7,
f96,
02f,
00c,
f30,
037,
01e,
00a,
017,
ff0,
fce,
023,
ffc,
05a,
fbf,
049,
fdb,
ff1,
fc0,
055,
043,
066,
ff1,
005,
02e,
002,
fcb,
fe8,
fec,
000,
05a,
fda,
03a,
ff5,
fef,
000,
013,
00a,
006,
055,
010,
010,
07f,
fdd,
ff0,
fdf,
008,
092,
f8d,
fe1,
fef,
f3a,
053,
fce,
000,
fb7,
fcb,
014,
067,
005,
006,
00f,
feb,
052,
08c,
fc8,
02c,
02a,
f3e,
061,
00e,
005,
03e,
ffb,
fe2,
028,
ffb,
063,
fce,
04d,
000,
fb8,
fd0,
056,
04d,
060,
026,
02a,
036,
022,
ffd,
fb6,
fd3,
fe2,
01a,
fcb,
060,
fd2,
fdc,
00d,
006,
031,
01b,
04b,
fff,
043,
093,
fe1,
fc0,
01b,
fde,
066,
f9e,
fe6,
000,
fa3,
098,
fce,
fe8,
faa,
003,
fd3,
028,
fe2,
fe3,
01e,
fd1,
03c,
074,
fc7,
023,
02f,
f6c,
041,
00f,
000,
076,
00a,
fd2,
039,
ff8,
03e,
fca,
025,
ff2,
fc5,
00b,
06b,
05d,
06b,
006,
037,
015,
01c,
01b,
fe4,
fbd,
fcb,
f8b,
fca,
046,
fce,
ff4,
fd2,
02b,
05c,
038,
029,
012,
06b,
082,
019,
fbf,
03d,
fc7,
031,
fd7,
fd8,
fed,
fe4,
048,
ffd,
ff1,
fbe,
fe9,
fdb,
fea,
004,
fd9,
004,
fae,
022,
05d,
fba,
024,
036,
f83,
058,
000,
ff5,
06d,
004,
fd2,
033,
ff0,
040,
fd7,
002,
ff7,
fe3,
fec,
05a,
058,
046,
009,
040,
fd7,
038,
003,
ffb,
fb3,
fc1,
f60,
fd4,
02a,
000,
012,
fc8,
036,
079,
ffc,
032,
000,
075,
08c,
00d,
fd6,
03b,
feb,
fd2,
00d,
fd0,
fd7,
000,
f5a,
002,
010,
fc4,
fc1,
fee,
fd7,
fda,
fe8,
00e,
fb4,
04c,
05f,
fd6,
018,
048,
f88,
044,
012,
fed,
034,
052,
fe9,
012,
011,
041,
fc9,
008,
008,
fb2,
002,
068,
057,
067,
023,
028,
fd7,
040,
00c,
008,
fe1,
fad,
fde,
ff7,
033,
020,
016,
fba,
049,
06a,
035,
003,
ff6,
03f,
082,
023,
fcf,
013,
012,
fc3,
03a,
fc9,
fbe,
025,
ee6,
035,
02d,
fac,
fa6,
00c,
fe7,
fb8,
fea,
003,
fd3,
03c,
06b,
002,
01e,
04b,
fab,
045,
023,
fc7,
026,
03d,
fdd,
fe9,
fe9,
02b,
fbd,
fc8,
013,
fe1,
00a,
03d,
048,
046,
031,
04b,
fbb,
037,
01d,
020,
fd9,
f9c,
00e,
014,
02b,
020,
fff,
fb3,
02e,
046,
022,
fe0,
01b,
ff0,
047,
04e,
fdb,
fb1,
042,
fba,
042,
fe2,
fb1,
003,
fa3,
044,
046,
f9b,
fe3,
02a,
fda,
fb1,
fe7,
fef,
fe6,
ff3,
075,
00b,
007,
03c,
fb7,
03e,
04a,
fa8,
fcd,
04c,
fe5,
ff2,
ffd,
01d,
fa4,
fae,
04a,
fe5,
fd5,
045,
031,
04f,
04f,
06a,
fce,
022,
00d,
043,
fef,
fa4,
050,
054,
02c,
031,
006,
f96,
021,
ff3,
03e,
fab,
017,
fd8,
036,
05b,
fc2,
fad,
04e,
fa8,
04a,
f99,
fb7,
fdf,
04f,
032,
03d,
f8f,
ff2,
016,
fc3,
faa,
007,
ffb,
002,
fdb,
066,
031,
012,
038,
fd6,
018,
051,
f98,
fa5,
076,
fd5,
002,
fe9,
019,
fb7,
fca,
056,
fd0,
fe8,
06b,
031,
020,
044,
04f,
fde,
030,
000,
049,
fe9,
fa7,
024,
073,
011,
045,
011,
fa7,
026,
f82,
025,
fbe,
008,
ff5,
037,
063,
fb9,
f87,
013,
fbc,
026,
fc5,
fea,
fdf,
04b,
03b,
fdc,
f6c,
002,
02c,
fc4,
fa6,
033,
fe6,
01d,
fde,
054,
04b,
007,
fff,
fd2,
00b,
052,
fc8,
fbf,
057,
fe9,
019,
fc6,
ffb,
fcd,
fd4,
043,
f9c,
fcd,
04a,
063,
01c,
02a,
037,
007,
067,
001,
028,
011,
fb7,
031,
052,
fff,
015,
01a,
fc1,
035,
e7e,
000,
fe6,
ff2,
fe9,
05a,
02e,
fd2,
fb7,
017,
fb1,
ff2,
fdc,
045,
004,
04b,
069,
f4a,
f96,
006,
003,
fe8,
fb0,
000,
fcb,
031,
fcc,
053,
033,
fed,
fff,
fd7,
019,
037,
fd6,
fcb,
07d,
ff8,
020,
fff,
005,
fb8,
ff0,
038,
f39,
ff2,
059,
05d,
024,
016,
049,
015,
047,
007,
03d,
021,
fe3,
007,
fc8,
003,
011,
00e,
fcb,
01b,
e5e,
fed,
fd0,
fe7,
00b,
04c,
010,
fc7,
02a,
027,
fe2,
fd4,
ff1,
06c,
005,
050,
047,
f40,
f99,
feb,
000,
021,
fb2,
fdc,
fb4,
000,
fb5,
03c,
04e,
011,
fe3,
fe2,
028,
015,
009,
fe0,
076,
013,
02d,
ffa,
035,
fc6,
fe9,
00e,
ea6,
fef,
04a,
03a,
004,
024,
05e,
014,
051,
026,
010,
01a,
ffc,
fea,
f1c,
ffd,
fcd,
001,
ffc,
ffd,
ef8,
fea,
fb5,
ff4,
016,
067,
ff2,
fc4,
056,
ff7,
fe4,
fbb,
fee,
083,
002,
ff8,
046,
f9d,
f9a,
fdf,
00a,
03d,
fe6,
01f,
fb7,
022,
fb5,
044,
02a,
020,
fe2,
ffc,
01b,
fef,
037,
ffe,
06e,
004,
04d,
018,
028,
fa7,
010,
017,
e98,
fcf,
049,
034,
013,
027,
063,
ff4,
059,
007,
00f,
000,
fe2,
ff4,
e4c,
fb6,
f8d,
ff9,
000,
fd3,
f63,
fd1,
fd6,
fdd,
00c,
07d,
fb6,
fd1,
061,
ffb,
007,
fcb,
00a,
03d,
000,
f84,
05f,
008,
f8e,
fc0,
002,
072,
ffa,
fb9,
f99,
00c,
fc6,
03e,
017,
026,
fcb,
00a,
fee,
f68,
058,
027,
040,
000,
058,
006,
008,
fb3,
02b,
037,
eaa,
f95,
07f,
03a,
fe3,
041,
077,
fbc,
041,
031,
ff2,
017,
ff4,
fdc,
e82,
fb1,
f9e,
fbe,
01a,
fda,
f97,
ff3,
fed,
fcf,
013,
056,
fac,
ff9,
01f,
fce,
026,
fd3,
feb,
000,
009,
f4c,
07f,
072,
fce,
fd0,
039,
072,
00b,
f64,
f75,
004,
fe2,
050,
015,
029,
fd8,
021,
fcd,
f6b,
06e,
03b,
02e,
fe4,
02d,
01a,
007,
fbd,
020,
035,
eda,
f7a,
05d,
00f,
fe4,
04a,
07d,
fa4,
03c,
031,
fea,
027,
fe3,
000,
f09,
fdb,
fe6,
fb8,
00d,
ff7,
fc6,
004,
fdd,
fd9,
018,
047,
f8b,
fde,
fb7,
fc8,
01e,
fd9,
fc4,
fa4,
ff3,
fc7,
084,
0d4,
ff3,
fb0,
02c,
070,
005,
f4f,
f72,
011,
ffd,
046,
020,
027,
ff7,
015,
fd2,
fa0,
05b,
015,
03f,
fbd,
fb8,
01a,
fd8,
fd5,
00d,
02c,
f09,
f3b,
035,
02e,
fd1,
02a,
05d,
f92,
053,
057,
fc3,
035,
012,
017,
ff3,
fd2,
03a,
fc1,
ffc,
029,
fe2,
fe6,
fce,
003,
01b,
039,
f87,
006,
f92,
f4c,
03d,
fd9,
f7e,
f92,
fe3,
033,
0a9,
08b,
ff7,
fa1,
039,
059,
035,
f94,
f6e,
fe3,
027,
034,
01d,
031,
fed,
00e,
fe7,
fd5,
072,
ff0,
039,
fb6,
f5d,
ff8,
fed,
fca,
028,
046,
f38,
f6e,
002,
020,
fc9,
03f,
060,
faf,
055,
057,
f90,
011,
01d,
fe0,
073,
fb8,
084,
fbd,
fd9,
03b,
fd1,
fbf,
fc4,
038,
01b,
029,
fd1,
fed,
fd9,
f05,
03a,
ffa,
f18,
fa3,
fe0,
025,
0ac,
06a,
fea,
f83,
069,
095,
048,
f8c,
f6e,
fce,
032,
028,
018,
045,
fb5,
ffd,
010,
fce,
071,
003,
04f,
fd6,
f76,
004,
ff7,
fd4,
031,
02f,
f6f,
f74,
fb8,
feb,
fab,
03d,
048,
fb1,
062,
013,
f51,
044,
fff,
01f,
0b4,
fc4,
09c,
fe5,
fca,
03c,
fe5,
fc6,
fcf,
04a,
fea,
032,
ff6,
fc4,
ff7,
f61,
049,
fdb,
f0a,
fd8,
00f,
03c,
0d6,
017,
fd3,
fb2,
05a,
0ce,
02a,
f99,
f6d,
fe5,
066,
03c,
fee,
029,
fb8,
fed,
fef,
fce,
069,
009,
05c,
fec,
fbf,
045,
fc3,
fe1,
ffc,
071,
fad,
fdd,
fc3,
fef,
fbe,
ff5,
061,
fd4,
fea,
00b,
003,
09f,
fb9,
02e,
023,
054,
ff2,
fcf,
01c,
011,
045,
016,
01b,
014,
fd0,
066,
015,
fff,
fd7,
fed,
ffd,
fec,
fe1,
fde,
037,
fe6,
fcb,
023,
ff2,
069,
f9b,
02f,
01b,
050,
fc3,
fee,
023,
fc5,
ffe,
057,
001,
fee,
fe5,
fca,
01a,
051,
040,
039,
fda,
00a,
ffe,
042,
027,
072,
fa4,
fd3,
fcd,
00a,
f92,
011,
064,
fad,
022,
009,
ff6,
063,
fcc,
06c,
ff1,
046,
033,
fda,
044,
ffb,
035,
fe3,
fdf,
ff9,
fe9,
02a,
000,
ff8,
fe5,
009,
ff5,
fec,
fd1,
005,
ffa,
fe3,
fc8,
01a,
00f,
044,
f96,
00b,
04d,
052,
fce,
00a,
02b,
fcf,
016,
04f,
fc1,
fd4,
ff5,
003,
00d,
044,
057,
017,
024,
fcd,
fea,
01f,
016,
067,
fdf,
fd0,
fcf,
008,
fb4,
019,
04f,
fbc,
000,
015,
fa5,
04b,
fe3,
074,
fe6,
055,
016,
fd6,
079,
015,
030,
f77,
fcb,
fe4,
017,
034,
001,
feb,
fe4,
00a,
010,
001,
fdc,
010,
fef,
ff6,
fbc,
ff7,
fde,
067,
fac,
009,
03f,
02a,
fbe,
fe0,
01c,
fff,
02e,
03c,
fa7,
fea,
003,
016,
023,
055,
050,
01d,
02a,
fc8,
fca,
004,
fac,
060,
ff2,
ff7,
fe9,
ffc,
f9a,
03e,
04b,
fe7,
02c,
024,
fb5,
04a,
fec,
045,
fd4,
04a,
01a,
fd9,
06a,
04e,
02d,
f75,
fa0,
ff3,
016,
03f,
feb,
ff0,
007,
019,
00b,
002,
fba,
fea,
fdb,
fce,
fbf,
000,
ffa,
059,
fdf,
00e,
03e,
046,
f9d,
003,
02c,
04e,
039,
039,
fbc,
fc3,
008,
020,
045,
048,
05e,
030,
01a,
ff9,
fdb,
00d,
f9d,
03d,
ff8,
fe7,
003,
ff5,
fb9,
01a,
05c,
02c,
019,
ffe,
fcd,
06d,
ff5,
021,
fd9,
05a,
03c,
fe9,
069,
02e,
029,
f88,
f5f,
fe6,
001,
062,
008,
fe1,
012,
ff0,
01c,
01f,
fc9,
010,
fde,
fe8,
fd1,
ffc,
ff5,
044,
fe1,
ff7,
ffb,
03d,
f8c,
ffc,
028,
043,
054,
036,
fa2,
fc8,
fe1,
021,
047,
05b,
053,
01c,
005,
ffc,
fce,
ffe,
f83,
03a,
031,
ff8,
ff3,
015,
fb7,
fef,
055,
062,
ff6,
fea,
fe9,
06d,
ff7,
fbd,
fd4,
051,
01e,
fe8,
06a,
009,
01e,
fb3,
f50,
005,
ff6,
06c,
015,
003,
fd6,
00f,
069,
029,
fdd,
002,
fe2,
fed,
fea,
019,
ff8,
038,
002,
fda,
fd9,
037,
f7d,
004,
038,
06f,
040,
055,
fae,
fa7,
005,
ff5,
011,
04a,
04e,
ff9,
fef,
ffb,
fbc,
ff5,
fc2,
043,
026,
fe3,
ffd,
012,
fbd,
000,
055,
073,
fd0,
fca,
004,
079,
025,
f58,
feb,
050,
025,
fe3,
062,
fe6,
fec,
f90,
fc3,
005,
002,
090,
00c,
fe0,
fdd,
001,
044,
fe6,
ff5,
ff5,
038,
fc3,
fde,
fff,
fcc,
020,
fed,
fec,
f95,
040,
f74,
006,
03e,
086,
054,
04f,
fcc,
f68,
04a,
005,
016,
fe2,
02f,
002,
fed,
ff8,
fe0,
fda,
ffc,
026,
009,
f86,
fc7,
015,
fb8,
009,
035,
043,
fed,
fd5,
000,
03e,
023,
fb7,
fcd,
06f,
011,
fe5,
054,
ff8,
fe6,
f9c,
035,
026,
fd2,
095,
ffd,
ff1,
fe3,
027,
04e,
ff5,
ff4,
ff5,
08c,
fcb,
fd2,
013,
faf,
fec,
fd8,
00c,
f8a,
031,
f7f,
01e,
01c,
08a,
ffa,
053,
f98,
f37,
037,
013,
fd7,
f90,
019,
011,
01d,
fed,
ffd,
fe1,
02a,
027,
00b,
f95,
fee,
010,
fca,
fe9,
03a,
045,
fd3,
fdd,
ff5,
00c,
030,
064,
fe5,
047,
00d,
01d,
037,
00d,
fd6,
fc1,
03a,
fea,
fae,
08e,
fc2,
ffd,
fdd,
03b,
069,
fb3,
ff2,
00e,
048,
fa2,
fc7,
007,
fda,
fea,
fef,
01e,
fc8,
00d,
fb6,
027,
044,
08b,
fa3,
048,
fb2,
f00,
020,
038,
fe5,
f90,
00e,
fea,
fec,
ffb,
004,
fdb,
05d,
008,
ff2,
fa5,
ff4,
042,
fd9,
fdd,
027,
010,
ff8,
fe5,
fef,
fcb,
034,
0af,
ff9,
053,
00f,
003,
037,
020,
fdc,
fe1,
054,
fe4,
fbe,
058,
fc1,
ff5,
fda,
031,
057,
f44,
fc7,
003,
fa3,
fbe,
fda,
025,
fce,
017,
013,
052,
fdc,
01c,
ff4,
040,
056,
0a6,
fa9,
05a,
fd4,
eeb,
02b,
028,
fb3,
ff4,
00c,
fe7,
02a,
010,
01e,
fe6,
03c,
fd5,
fea,
fb5,
ffc,
041,
fd6,
fe2,
01f,
00c,
ffb,
fbf,
fe0,
fb8,
03b,
07e,
fdd,
041,
007,
00d,
033,
006,
fd5,
034,
051,
fd9,
014,
062,
fcb,
fe3,
fd6,
029,
058,
f13,
fce,
02a,
f3e,
031,
fc6,
01e,
fca,
ff6,
00a,
04f,
ff7,
011,
ff4,
05b,
051,
073,
ff4,
069,
004,
ef1,
02b,
017,
fe3,
035,
002,
fcb,
046,
00d,
023,
fe2,
04d,
fd5,
fc9,
fb3,
009,
041,
fe2,
fe5,
029,
01a,
007,
ff7,
fb5,
ffc,
032,
02c,
fd2,
035,
026,
01a,
02a,
026,
ffe,
041,
043,
fdc,
045,
06c,
fcd,
ff0,
ff9,
015,
08f,
f95,
fdb,
00c,
f48,
06c,
fd0,
fe7,
fc4,
ffc,
009,
06a,
014,
feb,
01d,
051,
081,
080,
fe2,
06c,
007,
f1c,
051,
00e,
fec,
055,
fff,
fd2,
03b,
01b,
037,
fed,
046,
fd1,
fb9,
fc4,
016,
035,
ffa,
fd2,
013,
02a,
023,
022,
fb4,
fd3,
014,
fc7,
fd0,
029,
fdf,
008,
02d,
01b,
03e,
042,
01f,
fe5,
05f,
05f,
ff4,
fcd,
045,
ff9,
043,
fd3,
fd2,
01a,
fb6,
075,
fd8,
fdf,
fda,
00b,
fdf,
037,
005,
fc5,
022,
033,
057,
04d,
ff8,
07e,
021,
f2e,
06c,
023,
fe8,
07e,
012,
fe9,
03d,
000,
042,
fc9,
036,
fd5,
fc3,
fba,
00a,
044,
fd0,
fdc,
031,
fdf,
021,
069,
fe7,
fbb,
000,
f72,
fb7,
025,
fdc,
ff6,
016,
01b,
059,
044,
002,
ffc,
08d,
084,
ffd,
fd6,
041,
000,
ff7,
ff7,
fba,
018,
fed,
fd8,
fba,
00c,
fed,
013,
fc7,
fe7,
ffa,
fed,
ff8,
029,
05d,
048,
fd7,
051,
056,
f3e,
058,
015,
002,
074,
013,
ff7,
03a,
006,
032,
fd1,
031,
fc5,
faa,
fc6,
00a,
048,
fd7,
fee,
011,
fa5,
048,
037,
fea,
fc7,
005,
fab,
fb5,
00f,
ffe,
00a,
ffe,
03d,
058,
025,
ffa,
ff1,
065,
084,
022,
fe0,
022,
007,
fb0,
02c,
fb0,
fe2,
00a,
f10,
fea,
004,
fd4,
ff3,
fe8,
fcd,
004,
01f,
004,
030,
044,
050,
fef,
049,
037,
f4c,
04d,
034,
00f,
033,
041,
ffa,
008,
002,
03d,
fc4,
01d,
016,
fd1,
fe4,
00a,
061,
fdf,
00b,
02d,
fbe,
020,
010,
fed,
fe2,
006,
fe6,
fef,
ffe,
00d,
011,
fe4,
035,
044,
031,
fa7,
fe7,
036,
069,
02b,
fea,
00b,
029,
fb5,
056,
fb8,
f91,
02f,
f01,
013,
03e,
fd8,
ff9,
ff1,
fcc,
fed,
fec,
ff7,
022,
046,
048,
ff8,
03d,
02a,
f6b,
057,
04c,
fbf,
02a,
025,
ffd,
ff7,
ff9,
038,
fc0,
006,
ff7,
fe3,
fc4,
014,
04d,
fdd,
051,
039,
fb1,
037,
021,
00e,
022,
fdf,
06a,
023,
ffc,
011,
ffc,
ff0,
030,
014,
025,
f6a,
ff3,
ff2,
06d,
05b,
fcb,
fdd,
020,
f9c,
03a,
fb4,
f78,
02d,
f8a,
017,
023,
fc8,
014,
ffc,
ff2,
fc6,
ff2,
fec,
036,
014,
054,
02c,
00e,
01c,
f93,
047,
07a,
fc9,
fd6,
023,
fbf,
fec,
010,
037,
fb3,
fe3,
001,
000,
fa8,
ff8,
03f,
ff6,
04a,
02d,
fbf,
037,
03f,
038,
016,
fd6,
055,
04e,
017,
024,
005,
feb,
01c,
fca,
033,
f61,
fea,
fd7,
055,
05b,
fe2,
fe6,
010,
fa8,
024,
fa7,
f89,
fef,
05a,
007,
038,
fc2,
051,
00c,
fbe,
fbb,
ffd,
fdf,
00f,
011,
03b,
034,
009,
028,
fa1,
047,
093,
fd6,
fa6,
024,
fc0,
013,
ff0,
ff6,
fb9,
fe9,
017,
fff,
f88,
007,
039,
00b,
02b,
01b,
ffa,
035,
011,
03b,
002,
fe3,
048,
07d,
00c,
026,
011,
ff9,
04f,
f9e,
ff5,
fa7,
fe5,
fe5,
04d,
047,
fcc,
fd1,
013,
fbf,
ff7,
fc2,
fd7,
006,
065,
015,
fd2,
fb2,
048,
00d,
fbc,
f96,
000,
faf,
fe3,
fea,
028,
045,
000,
ff1,
fac,
02a,
08d,
031,
fc5,
02f,
fb5,
031,
fd9,
ff0,
fb8,
015,
01b,
042,
fa8,
005,
032,
000,
01e,
02d,
019,
02a,
ffd,
028,
01e,
fe3,
037,
062,
006,
01a,
023,
004,
02e,
f05,
ffb,
fbd,
ff3,
fdc,
033,
020,
faf,
fe3,
02f,
ffb,
fd8,
fbc,
02b,
ffb,
04f,
032,
f6c,
fc3,
049,
fdf,
ffb,
f88,
fd9,
f9c,
fdf,
fe6,
00b,
04e,
fe2,
fea,
fae,
fe4,
04c,
040,
fe3,
03b,
fc1,
05a,
fe3,
fdd,
fc5,
013,
026,
ffd,
f93,
012,
04a,
00d,
016,
02b,
016,
03f,
01b,
022,
01a,
fd8,
015,
fe3,
fbe,
ffa,
022,
01e,
005,
e96,
fe1,
fd7,
ff6,
008,
033,
010,
fb1,
028,
039,
00c,
fa1,
fee,
070,
015,
070,
010,
f6c,
fc9,
01f,
fd6,
045,
f8f,
fc8,
f96,
001,
ff9,
fe2,
078,
fee,
feb,
fc1,
001,
015,
043,
ff5,
048,
feb,
077,
ffc,
ff9,
fb8,
ff1,
004,
fae,
f7c,
036,
041,
fe6,
02b,
049,
019,
038,
030,
ffe,
015,
fd8,
022,
f28,
fb6,
fc2,
01e,
018,
ff5,
ef2,
fd0,
fe5,
ffc,
016,
04f,
fe9,
fc8,
046,
02d,
00e,
fc6,
ff7,
065,
01f,
ff3,
004,
f9b,
fd0,
019,
feb,
053,
fd5,
00b,
f9c,
014,
fe5,
ff5,
040,
011,
faf,
fc6,
019,
f84,
05a,
fed,
038,
fe4,
090,
022,
01a,
fba,
00f,
ff8,
f4d,
f6f,
079,
017,
fc7,
04d,
048,
02c,
049,
013,
025,
feb,
fc3,
008,
e87,
fbb,
fad,
023,
030,
fcc,
f5c,
ff7,
fee,
ff3,
00a,
055,
fb1,
fdf,
041,
006,
00c,
fe7,
fdd,
02c,
02d,
f54,
009,
017,
fd3,
013,
ffd,
04b,
ff1,
ff3,
fab,
fe4,
014,
ffc,
028,
023,
fc7,
ff8,
fe9,
f51,
06f,
fff,
028,
fff,
033,
025,
039,
fbe,
fe9,
027,
f05,
f64,
073,
025,
fd1,
07d,
085,
003,
03c,
01e,
fdf,
fff,
fdd,
ffe,
e9b,
fc9,
fdc,
000,
051,
fd5,
f8b,
feb,
fe2,
fdf,
007,
06f,
f4f,
fe2,
019,
ffb,
fea,
fea,
fe6,
fd5,
fff,
f50,
00c,
07a,
fdd,
009,
027,
064,
ffb,
fab,
f95,
ff0,
011,
025,
ffd,
036,
fde,
fda,
fc7,
f97,
07f,
009,
029,
fdd,
ff3,
00a,
02b,
fc6,
003,
020,
f4f,
f2d,
090,
000,
feb,
050,
07c,
fde,
047,
033,
fe0,
02d,
006,
005,
f09,
fdb,
ff3,
fb5,
036,
ff2,
fb4,
fd8,
fc4,
fcd,
00a,
04f,
ef7,
002,
fe4,
fad,
fdf,
ff7,
fad,
f82,
018,
fcb,
fff,
0ba,
fea,
fd6,
005,
059,
ff3,
f7b,
f8e,
ff5,
ffe,
ffb,
ff9,
04d,
003,
fe1,
fc6,
fb5,
04b,
013,
03d,
fd2,
f7a,
014,
00c,
fc1,
ffd,
005,
f5d,
f2b,
065,
ffa,
fd9,
02b,
042,
fab,
043,
02b,
ff8,
018,
01a,
003,
fe5,
fd7,
04a,
fab,
029,
00c,
fc5,
fc5,
fe8,
00c,
016,
065,
f20,
002,
fb7,
efe,
ffa,
ff2,
fa1,
f4a,
009,
044,
042,
093,
010,
fbf,
009,
064,
00a,
fb6,
f91,
007,
017,
000,
01c,
059,
fed,
002,
fc0,
ff4,
05b,
00f,
026,
fc1,
f44,
ff7,
ffb,
feb,
007,
04b,
f86,
f34,
040,
006,
fb8,
049,
05a,
fc7,
03d,
057,
fd5,
014,
024,
fc2,
06c,
fb7,
08c,
fb8,
fe3,
025,
fcc,
fa0,
fb5,
014,
030,
047,
f95,
fe8,
fc2,
ecc,
013,
feb,
f58,
f57,
ffa,
03d,
08d,
022,
ff7,
fa7,
06d,
072,
068,
fb3,
f9b,
024,
04d,
ffd,
02f,
04c,
fe3,
016,
000,
fb7,
06f,
004,
039,
fd0,
fa1,
fce,
fd3,
fed,
028,
040,
fa3,
f20,
fef,
ff6,
f9c,
02d,
057,
fea,
062,
038,
fbe,
050,
008,
fe3,
0b5,
fa6,
066,
fc0,
fd9,
060,
000,
fa1,
fba,
046,
ffd,
03c,
ff7,
fc4,
fe2,
f46,
036,
ff3,
f2d,
f9e,
015,
04e,
0b2,
ff2,
fdb,
f92,
078,
098,
062,
fb9,
f97,
01f,
088,
028,
02d,
02e,
fae,
fec,
ff0,
fa4,
039,
00a,
067,
fc8,
fe6,
016,
fa5,
fd6,
fef,
066,
fbd,
ffb,
fb0,
fc6,
fb0,
ff1,
075,
fe4,
ff9,
ff9,
016,
09f,
fdb,
03f,
020,
037,
009,
fef,
ff3,
003,
038,
fff,
ff4,
002,
fe4,
018,
ff4,
020,
fdc,
006,
023,
fe9,
ff9,
fd2,
03d,
ffb,
feb,
011,
ff0,
07d,
fc3,
019,
04c,
066,
ff6,
fc2,
01c,
fb6,
005,
05a,
fe7,
fdf,
fe0,
fd6,
012,
04f,
061,
04f,
ffd,
fce,
029,
040,
fef,
09b,
fef,
fee,
fcd,
fce,
fbc,
007,
052,
fcb,
01d,
ffa,
fd8,
08a,
fe8,
04c,
001,
042,
029,
fcb,
02d,
016,
017,
fe6,
fba,
ff0,
fff,
00a,
fee,
ff4,
fdf,
ff9,
003,
ffe,
ff7,
000,
008,
002,
fbf,
004,
00b,
064,
fa1,
ff6,
05d,
052,
fcc,
00a,
02c,
fd6,
013,
03e,
fe2,
00f,
fe4,
01c,
fe5,
054,
069,
021,
013,
fdb,
000,
048,
ff2,
083,
004,
ff5,
fe3,
fb3,
fae,
025,
040,
fda,
024,
ffe,
f9e,
080,
fe6,
054,
fda,
05c,
016,
fd6,
059,
016,
022,
f9e,
fb7,
fe1,
001,
019,
fe0,
ff0,
fdb,
00c,
025,
022,
ff4,
017,
fe2,
002,
fd9,
ffa,
fd3,
04e,
fa5,
003,
053,
055,
fe9,
fe9,
045,
001,
01f,
03b,
fb7,
ff0,
fef,
009,
034,
069,
05c,
01e,
02c,
ff0,
006,
02e,
fb3,
058,
ffc,
008,
fd9,
f94,
fc3,
026,
06c,
006,
01c,
ff3,
f94,
061,
fff,
02f,
fdf,
041,
04f,
feb,
08d,
057,
033,
f77,
f9a,
fe8,
024,
025,
ff2,
fdd,
ff9,
ff6,
011,
03b,
fc3,
020,
fc3,
ff5,
f98,
fe3,
fd4,
068,
ff5,
003,
007,
044,
fdb,
fff,
011,
039,
021,
041,
fdf,
fec,
008,
011,
021,
052,
077,
041,
039,
ff8,
ff6,
018,
fa5,
05c,
006,
ff9,
ff7,
f95,
f9c,
014,
05f,
00c,
020,
ffc,
fb5,
0a7,
ffa,
000,
fe8,
05b,
04e,
